{
  "version": "1.0",
  "truncation": null,
  "padding": null,
  "added_tokens": [
    {
      "id": 126080,
      "content": "<|startoftext|>",
      "single_word": false,
      "lstrip": false,
      "rstrip": false,
      "normalized": false,
      "special": true
    },
    {
      "id": 126081,
      "content": "<|endoftext|>",
      "single_word": false,
      "lstrip": false,
      "rstrip": false,
      "normalized": false,
      "special": true
    },
    {
      "id": 126082,
      "content": "[CLS]",
      "single_word": false,
      "lstrip": false,
      "rstrip": false,
      "normalized": false,
      "special": true
    },
    {
      "id": 126083,
      "content": "[gMASK]",
      "single_word": false,
      "lstrip": false,
      "rstrip": false,
      "normalized": false,
      "special": true
    },
    {
      "id": 126084,
      "content": "<|reserved_token_0|>",
      "single_word": false,
      "lstrip": false,
      "rstrip": false,
      "normalized": false,
      "special": true
    },
    {
      "id": 126085,
      "content": "<|reserved_token_1|>",
      "single_word": false,
      "lstrip": false,
      "rstrip": false,
      "normalized": false,
      "special": true
    },
    {
      "id": 126086,
      "content": "<|reserved_token_2|>",
      "single_word": false,
      "lstrip": false,
      "rstrip": false,
      "normalized": false,
      "special": true
    },
    {
      "id": 126087,
      "content": "<|reserved_token_3|>",
      "single_word": false,
      "lstrip": false,
      "rstrip": false,
      "normalized": false,
      "special": true
    },
    {
      "id": 126088,
      "content": "<|reserved_token_4|>",
      "single_word": false,
      "lstrip": false,
      "rstrip": false,
      "normalized": false,
      "special": true
    },
    {
      "id": 126089,
      "content": "<|reserved_token_5|>",
      "single_word": false,
      "lstrip": false,
      "rstrip": false,
      "normalized": false,
      "special": true
    },
    {
      "id": 126090,
      "content": "<|reserved_token_6|>",
      "single_word": false,
      "lstrip": false,
      "rstrip": false,
      "normalized": false,
      "special": true
    },
    {
      "id": 126091,
      "content": "<|reserved_token_7|>",
      "single_word": false,
      "lstrip": false,
      "rstrip": false,
      "normalized": false,
      "special": true
    },
    {
      "id": 126092,
      "content": "<|reserved_token_8|>",
      "single_word": false,
      "lstrip": false,
      "rstrip": false,
      "normalized": false,
      "special": true
    },
    {
      "id": 126093,
      "content": "<|reserved_token_9|>",
      "single_word": false,
      "lstrip": false,
      "rstrip": false,
      "normalized": false,
      "special": true
    },
    {
      "id": 126094,
      "content": "<|reserved_token_10|>",
      "single_word": false,
      "lstrip": false,
      "rstrip": false,
      "normalized": false,
      "special": true
    },
    {
      "id": 126095,
      "content": "<|reserved_token_11|>",
      "single_word": false,
      "lstrip": false,
      "rstrip": false,
      "normalized": false,
      "special": true
    },
    {
      "id": 126096,
      "content": "<|reserved_token_12|>",
      "single_word": false,
      "lstrip": false,
      "rstrip": false,
      "normalized": false,
      "special": true
    },
    {
      "id": 126097,
      "content": "<|reserved_token_13|>",
      "single_word": false,
      "lstrip": false,
      "rstrip": false,
      "normalized": false,
      "special": true
    },
    {
      "id": 126098,
      "content": "<|reserved_token_14|>",
      "single_word": false,
      "lstrip": false,
      "rstrip": false,
      "normalized": false,
      "special": true
    },
    {
      "id": 126099,
      "content": "<|reserved_token_15|>",
      "single_word": false,
      "lstrip": false,
      "rstrip": false,
      "normalized": false,
      "special": true
    },
    {
      "id": 126100,
      "content": "<|reserved_token_16|>",
      "single_word": false,
      "lstrip": false,
      "rstrip": false,
      "normalized": false,
      "special": true
    },
    {
      "id": 126101,
      "content": "<|reserved_token_17|>",
      "single_word": false,
      "lstrip": false,
      "rstrip": false,
      "normalized": false,
      "special": true
    },
    {
      "id": 126102,
      "content": "<|reserved_token_18|>",
      "single_word": false,
      "lstrip": false,
      "rstrip": false,
      "normalized": false,
      "special": true
    },
    {
      "id": 126103,
      "content": "<|reserved_token_19|>",
      "single_word": false,
      "lstrip": false,
      "rstrip": false,
      "normalized": false,
      "special": true
    },
    {
      "id": 126104,
      "content": "<|reserved_token_20|>",
      "single_word": false,
      "lstrip": false,
      "rstrip": false,
      "normalized": false,
      "special": true
    },
    {
      "id": 126105,
      "content": "<|reserved_token_21|>",
      "single_word": false,
      "lstrip": false,
      "rstrip": false,
      "normalized": false,
      "special": true
    },
    {
      "id": 126106,
      "content": "<|reserved_token_22|>",
      "single_word": false,
      "lstrip": false,
      "rstrip": false,
      "normalized": false,
      "special": true
    },
    {
      "id": 126107,
      "content": "<|reserved_token_23|>",
      "single_word": false,
      "lstrip": false,
      "rstrip": false,
      "normalized": false,
      "special": true
    },
    {
      "id": 126108,
      "content": "<|reserved_token_24|>",
      "single_word": false,
      "lstrip": false,
      "rstrip": false,
      "normalized": false,
      "special": true
    },
    {
      "id": 126109,
      "content": "<|reserved_token_25|>",
      "single_word": false,
      "lstrip": false,
      "rstrip": false,
      "normalized": false,
      "special": true
    },
    {
      "id": 126110,
      "content": "<|reserved_token_26|>",
      "single_word": false,
      "lstrip": false,
      "rstrip": false,
      "normalized": false,
      "special": true
    },
    {
      "id": 126111,
      "content": "<|reserved_token_27|>",
      "single_word": false,
      "lstrip": false,
      "rstrip": false,
      "normalized": false,
      "special": true
    },
    {
      "id": 126112,
      "content": "<|reserved_token_28|>",
      "single_word": false,
      "lstrip": false,
      "rstrip": false,
      "normalized": false,
      "special": true
    },
    {
      "id": 126113,
      "content": "<|reserved_token_29|>",
      "single_word": false,
      "lstrip": false,
      "rstrip": false,
      "normalized": false,
      "special": true
    },
    {
      "id": 126114,
      "content": "<|reserved_token_30|>",
      "single_word": false,
      "lstrip": false,
      "rstrip": false,
      "normalized": false,
      "special": true
    },
    {
      "id": 126115,
      "content": "<|reserved_token_31|>",
      "single_word": false,
      "lstrip": false,
      "rstrip": false,
      "normalized": false,
      "special": true
    },
    {
      "id": 126116,
      "content": "<|reserved_token_32|>",
      "single_word": false,
      "lstrip": false,
      "rstrip": false,
      "normalized": false,
      "special": true
    },
    {
      "id": 126117,
      "content": "<|reserved_token_33|>",
      "single_word": false,
      "lstrip": false,
      "rstrip": false,
      "normalized": false,
      "special": true
    },
    {
      "id": 126118,
      "content": "<|reserved_token_34|>",
      "single_word": false,
      "lstrip": false,
      "rstrip": false,
      "normalized": false,
      "special": true
    },
    {
      "id": 126119,
      "content": "<|reserved_token_35|>",
      "single_word": false,
      "lstrip": false,
      "rstrip": false,
      "normalized": false,
      "special": true
    },
    {
      "id": 126120,
      "content": "<|reserved_token_36|>",
      "single_word": false,
      "lstrip": false,
      "rstrip": false,
      "normalized": false,
      "special": true
    },
    {
      "id": 126121,
      "content": "<|reserved_token_37|>",
      "single_word": false,
      "lstrip": false,
      "rstrip": false,
      "normalized": false,
      "special": true
    },
    {
      "id": 126122,
      "content": "<|reserved_token_38|>",
      "single_word": false,
      "lstrip": false,
      "rstrip": false,
      "normalized": false,
      "special": true
    },
    {
      "id": 126123,
      "content": "<|reserved_token_39|>",
      "single_word": false,
      "lstrip": false,
      "rstrip": false,
      "normalized": false,
      "special": true
    },
    {
      "id": 126124,
      "content": "<|reserved_token_40|>",
      "single_word": false,
      "lstrip": false,
      "rstrip": false,
      "normalized": false,
      "special": true
    },
    {
      "id": 126125,
      "content": "<|reserved_token_41|>",
      "single_word": false,
      "lstrip": false,
      "rstrip": false,
      "normalized": false,
      "special": true
    },
    {
      "id": 126126,
      "content": "<|reserved_token_42|>",
      "single_word": false,
      "lstrip": false,
      "rstrip": false,
      "normalized": false,
      "special": true
    },
    {
      "id": 126127,
      "content": "<|reserved_token_43|>",
      "single_word": false,
      "lstrip": false,
      "rstrip": false,
      "normalized": false,
      "special": true
    },
    {
      "id": 126128,
      "content": "<|reserved_token_44|>",
      "single_word": false,
      "lstrip": false,
      "rstrip": false,
      "normalized": false,
      "special": true
    },
    {
      "id": 126129,
      "content": "<|reserved_token_45|>",
      "single_word": false,
      "lstrip": false,
      "rstrip": false,
      "normalized": false,
      "special": true
    },
    {
      "id": 126130,
      "content": "<|reserved_token_46|>",
      "single_word": false,
      "lstrip": false,
      "rstrip": false,
      "normalized": false,
      "special": true
    },
    {
      "id": 126131,
      "content": "<|reserved_token_47|>",
      "single_word": false,
      "lstrip": false,
      "rstrip": false,
      "normalized": false,
      "special": true
    },
    {
      "id": 126132,
      "content": "<|reserved_token_48|>",
      "single_word": false,
      "lstrip": false,
      "rstrip": false,
      "normalized": false,
      "special": true
    },
    {
      "id": 126133,
      "content": "<|reserved_token_49|>",
      "single_word": false,
      "lstrip": false,
      "rstrip": false,
      "normalized": false,
      "special": true
    },
    {
      "id": 126134,
      "content": "<|reserved_token_50|>",
      "single_word": false,
      "lstrip": false,
      "rstrip": false,
      "normalized": false,
      "special": true
    },
    {
      "id": 126135,
      "content": "<|reserved_token_51|>",
      "single_word": false,
      "lstrip": false,
      "rstrip": false,
      "normalized": false,
      "special": true
    },
    {
      "id": 126136,
      "content": "<|reserved_token_52|>",
      "single_word": false,
      "lstrip": false,
      "rstrip": false,
      "normalized": false,
      "special": true
    },
    {
      "id": 126137,
      "content": "<|reserved_token_53|>",
      "single_word": false,
      "lstrip": false,
      "rstrip": false,
      "normalized": false,
      "special": true
    },
    {
      "id": 126138,
      "content": "<|reserved_token_54|>",
      "single_word": false,
      "lstrip": false,
      "rstrip": false,
      "normalized": false,
      "special": true
    },
    {
      "id": 126139,
      "content": "<|reserved_token_55|>",
      "single_word": false,
      "lstrip": false,
      "rstrip": false,
      "normalized": false,
      "special": true
    },
    {
      "id": 126140,
      "content": "<|reserved_token_56|>",
      "single_word": false,
      "lstrip": false,
      "rstrip": false,
      "normalized": false,
      "special": true
    },
    {
      "id": 126141,
      "content": "<|reserved_token_57|>",
      "single_word": false,
      "lstrip": false,
      "rstrip": false,
      "normalized": false,
      "special": true
    },
    {
      "id": 126142,
      "content": "<|reserved_token_58|>",
      "single_word": false,
      "lstrip": false,
      "rstrip": false,
      "normalized": false,
      "special": true
    },
    {
      "id": 126143,
      "content": "<|reserved_token_59|>",
      "single_word": false,
      "lstrip": false,
      "rstrip": false,
      "normalized": false,
      "special": true
    },
    {
      "id": 126144,
      "content": "<|reserved_token_60|>",
      "single_word": false,
      "lstrip": false,
      "rstrip": false,
      "normalized": false,
      "special": true
    },
    {
      "id": 126145,
      "content": "<|reserved_token_61|>",
      "single_word": false,
      "lstrip": false,
      "rstrip": false,
      "normalized": false,
      "special": true
    },
    {
      "id": 126146,
      "content": "<|reserved_token_62|>",
      "single_word": false,
      "lstrip": false,
      "rstrip": false,
      "normalized": false,
      "special": true
    },
    {
      "id": 126147,
      "content": "<|reserved_token_63|>",
      "single_word": false,
      "lstrip": false,
      "rstrip": false,
      "normalized": false,
      "special": true
    },
    {
      "id": 126148,
      "content": "<|reserved_token_64|>",
      "single_word": false,
      "lstrip": false,
      "rstrip": false,
      "normalized": false,
      "special": true
    },
    {
      "id": 126149,
      "content": "<|reserved_token_65|>",
      "single_word": false,
      "lstrip": false,
      "rstrip": false,
      "normalized": false,
      "special": true
    },
    {
      "id": 126150,
      "content": "<|reserved_token_66|>",
      "single_word": false,
      "lstrip": false,
      "rstrip": false,
      "normalized": false,
      "special": true
    },
    {
      "id": 126151,
      "content": "<|reserved_token_67|>",
      "single_word": false,
      "lstrip": false,
      "rstrip": false,
      "normalized": false,
      "special": true
    },
    {
      "id": 126152,
      "content": "<|reserved_token_68|>",
      "single_word": false,
      "lstrip": false,
      "rstrip": false,
      "normalized": false,
      "special": true
    },
    {
      "id": 126153,
      "content": "<|reserved_token_69|>",
      "single_word": false,
      "lstrip": false,
      "rstrip": false,
      "normalized": false,
      "special": true
    },
    {
      "id": 126154,
      "content": "<|reserved_token_70|>",
      "single_word": false,
      "lstrip": false,
      "rstrip": false,
      "normalized": false,
      "special": true
    },
    {
      "id": 126155,
      "content": "<|reserved_token_71|>",
      "single_word": false,
      "lstrip": false,
      "rstrip": false,
      "normalized": false,
      "special": true
    },
    {
      "id": 126156,
      "content": "<|reserved_token_72|>",
      "single_word": false,
      "lstrip": false,
      "rstrip": false,
      "normalized": false,
      "special": true
    },
    {
      "id": 126157,
      "content": "<|reserved_token_73|>",
      "single_word": false,
      "lstrip": false,
      "rstrip": false,
      "normalized": false,
      "special": true
    },
    {
      "id": 126158,
      "content": "<|reserved_token_74|>",
      "single_word": false,
      "lstrip": false,
      "rstrip": false,
      "normalized": false,
      "special": true
    },
    {
      "id": 126159,
      "content": "<|reserved_token_75|>",
      "single_word": false,
      "lstrip": false,
      "rstrip": false,
      "normalized": false,
      "special": true
    },
    {
      "id": 126160,
      "content": "<|reserved_token_76|>",
      "single_word": false,
      "lstrip": false,
      "rstrip": false,
      "normalized": false,
      "special": true
    },
    {
      "id": 126161,
      "content": "<|reserved_token_77|>",
      "single_word": false,
      "lstrip": false,
      "rstrip": false,
      "normalized": false,
      "special": true
    },
    {
      "id": 126162,
      "content": "<|reserved_token_78|>",
      "single_word": false,
      "lstrip": false,
      "rstrip": false,
      "normalized": false,
      "special": true
    },
    {
      "id": 126163,
      "content": "<|reserved_token_79|>",
      "single_word": false,
      "lstrip": false,
      "rstrip": false,
      "normalized": false,
      "special": true
    },
    {
      "id": 126164,
      "content": "<|reserved_token_80|>",
      "single_word": false,
      "lstrip": false,
      "rstrip": false,
      "normalized": false,
      "special": true
    },
    {
      "id": 126165,
      "content": "<|reserved_token_81|>",
      "single_word": false,
      "lstrip": false,
      "rstrip": false,
      "normalized": false,
      "special": true
    },
    {
      "id": 126166,
      "content": "<|reserved_token_82|>",
      "single_word": false,
      "lstrip": false,
      "rstrip": false,
      "normalized": false,
      "special": true
    },
    {
      "id": 126167,
      "content": "<|reserved_token_83|>",
      "single_word": false,
      "lstrip": false,
      "rstrip": false,
      "normalized": false,
      "special": true
    },
    {
      "id": 126168,
      "content": "<|reserved_token_84|>",
      "single_word": false,
      "lstrip": false,
      "rstrip": false,
      "normalized": false,
      "special": true
    },
    {
      "id": 126169,
      "content": "<|reserved_token_85|>",
      "single_word": false,
      "lstrip": false,
      "rstrip": false,
      "normalized": false,
      "special": true
    },
    {
      "id": 126170,
      "content": "<|reserved_token_86|>",
      "single_word": false,
      "lstrip": false,
      "rstrip": false,
      "normalized": false,
      "special": true
    },
    {
      "id": 126171,
      "content": "<|reserved_token_87|>",
      "single_word": false,
      "lstrip": false,
      "rstrip": false,
      "normalized": false,
      "special": true
    },
    {
      "id": 126172,
      "content": "<|reserved_token_88|>",
      "single_word": false,
      "lstrip": false,
      "rstrip": false,
      "normalized": false,
      "special": true
    },
    {
      "id": 126173,
      "content": "<|reserved_token_89|>",
      "single_word": false,
      "lstrip": false,
      "rstrip": false,
      "normalized": false,
      "special": true
    },
    {
      "id": 126174,
      "content": "<|reserved_token_90|>",
      "single_word": false,
      "lstrip": false,
      "rstrip": false,
      "normalized": false,
      "special": true
    },
    {
      "id": 126175,
      "content": "<|reserved_token_91|>",
      "single_word": false,
      "lstrip": false,
      "rstrip": false,
      "normalized": false,
      "special": true
    },
    {
      "id": 126176,
      "content": "<|reserved_token_92|>",
      "single_word": false,
      "lstrip": false,
      "rstrip": false,
      "normalized": false,
      "special": true
    },
    {
      "id": 126177,
      "content": "<|reserved_token_93|>",
      "single_word": false,
      "lstrip": false,
      "rstrip": false,
      "normalized": false,
      "special": true
    },
    {
      "id": 126178,
      "content": "<|reserved_token_94|>",
      "single_word": false,
      "lstrip": false,
      "rstrip": false,
      "normalized": false,
      "special": true
    },
    {
      "id": 126179,
      "content": "<|reserved_token_95|>",
      "single_word": false,
      "lstrip": false,
      "rstrip": false,
      "normalized": false,
      "special": true
    },
    {
      "id": 126180,
      "content": "<|reserved_token_96|>",
      "single_word": false,
      "lstrip": false,
      "rstrip": false,
      "normalized": false,
      "special": true
    },
    {
      "id": 126181,
      "content": "<|reserved_token_97|>",
      "single_word": false,
      "lstrip": false,
      "rstrip": false,
      "normalized": false,
      "special": true
    },
    {
      "id": 126182,
      "content": "<|reserved_token_98|>",
      "single_word": false,
      "lstrip": false,
      "rstrip": false,
      "normalized": false,
      "special": true
    },
    {
      "id": 126183,
      "content": "<|reserved_token_99|>",
      "single_word": false,
      "lstrip": false,
      "rstrip": false,
      "normalized": false,
      "special": true
    },
    {
      "id": 126184,
      "content": "<|reserved_token_100|>",
      "single_word": false,
      "lstrip": false,
      "rstrip": false,
      "normalized": false,
      "special": true
    },
    {
      "id": 126185,
      "content": "<|reserved_token_101|>",
      "single_word": false,
      "lstrip": false,
      "rstrip": false,
      "normalized": false,
      "special": true
    },
    {
      "id": 126186,
      "content": "<|reserved_token_102|>",
      "single_word": false,
      "lstrip": false,
      "rstrip": false,
      "normalized": false,
      "special": true
    },
    {
      "id": 126187,
      "content": "<|reserved_token_103|>",
      "single_word": false,
      "lstrip": false,
      "rstrip": false,
      "normalized": false,
      "special": true
    },
    {
      "id": 126188,
      "content": "<|reserved_token_104|>",
      "single_word": false,
      "lstrip": false,
      "rstrip": false,
      "normalized": false,
      "special": true
    },
    {
      "id": 126189,
      "content": "<|reserved_token_105|>",
      "single_word": false,
      "lstrip": false,
      "rstrip": false,
      "normalized": false,
      "special": true
    },
    {
      "id": 126190,
      "content": "<|reserved_token_106|>",
      "single_word": false,
      "lstrip": false,
      "rstrip": false,
      "normalized": false,
      "special": true
    },
    {
      "id": 126191,
      "content": "<|reserved_token_107|>",
      "single_word": false,
      "lstrip": false,
      "rstrip": false,
      "normalized": false,
      "special": true
    },
    {
      "id": 126192,
      "content": "<|reserved_token_108|>",
      "single_word": false,
      "lstrip": false,
      "rstrip": false,
      "normalized": false,
      "special": true
    },
    {
      "id": 126193,
      "content": "<|reserved_token_109|>",
      "single_word": false,
      "lstrip": false,
      "rstrip": false,
      "normalized": false,
      "special": true
    },
    {
      "id": 126194,
      "content": "<|reserved_token_110|>",
      "single_word": false,
      "lstrip": false,
      "rstrip": false,
      "normalized": false,
      "special": true
    },
    {
      "id": 126195,
      "content": "<|reserved_token_111|>",
      "single_word": false,
      "lstrip": false,
      "rstrip": false,
      "normalized": false,
      "special": true
    },
    {
      "id": 126196,
      "content": "<|reserved_token_112|>",
      "single_word": false,
      "lstrip": false,
      "rstrip": false,
      "normalized": false,
      "special": true
    },
    {
      "id": 126197,
      "content": "<|reserved_token_113|>",
      "single_word": false,
      "lstrip": false,
      "rstrip": false,
      "normalized": false,
      "special": true
    },
    {
      "id": 126198,
      "content": "<|reserved_token_114|>",
      "single_word": false,
      "lstrip": false,
      "rstrip": false,
      "normalized": false,
      "special": true
    },
    {
      "id": 126199,
      "content": "<|reserved_token_115|>",
      "single_word": false,
      "lstrip": false,
      "rstrip": false,
      "normalized": false,
      "special": true
    },
    {
      "id": 126200,
      "content": "<|reserved_token_116|>",
      "single_word": false,
      "lstrip": false,
      "rstrip": false,
      "normalized": false,
      "special": true
    },
    {
      "id": 126201,
      "content": "<|reserved_token_117|>",
      "single_word": false,
      "lstrip": false,
      "rstrip": false,
      "normalized": false,
      "special": true
    },
    {
      "id": 126202,
      "content": "<|reserved_token_118|>",
      "single_word": false,
      "lstrip": false,
      "rstrip": false,
      "normalized": false,
      "special": true
    },
    {
      "id": 126203,
      "content": "<|reserved_token_119|>",
      "single_word": false,
      "lstrip": false,
      "rstrip": false,
      "normalized": false,
      "special": true
    },
    {
      "id": 126204,
      "content": "<|reserved_token_120|>",
      "single_word": false,
      "lstrip": false,
      "rstrip": false,
      "normalized": false,
      "special": true
    },
    {
      "id": 126205,
      "content": "<|reserved_token_121|>",
      "single_word": false,
      "lstrip": false,
      "rstrip": false,
      "normalized": false,
      "special": true
    },
    {
      "id": 126206,
      "content": "<|reserved_token_122|>",
      "single_word": false,
      "lstrip": false,
      "rstrip": false,
      "normalized": false,
      "special": true
    },
    {
      "id": 126207,
      "content": "<|reserved_token_123|>",
      "single_word": false,
      "lstrip": false,
      "rstrip": false,
      "normalized": false,
      "special": true
    },
    {
      "id": 126208,
      "content": "<|reserved_token_124|>",
      "single_word": false,
      "lstrip": false,
      "rstrip": false,
      "normalized": false,
      "special": true
    },
    {
      "id": 126209,
      "content": "<|reserved_token_125|>",
      "single_word": false,
      "lstrip": false,
      "rstrip": false,
      "normalized": false,
      "special": true
    },
    {
      "id": 126210,
      "content": "<|reserved_token_126|>",
      "single_word": false,
      "lstrip": false,
      "rstrip": false,
      "normalized": false,
      "special": true
    },
    {
      "id": 126211,
      "content": "<|reserved_token_127|>",
      "single_word": false,
      "lstrip": false,
      "rstrip": false,
      "normalized": false,
      "special": true
    },
    {
      "id": 126212,
      "content": "<|reserved_token_128|>",
      "single_word": false,
      "lstrip": false,
      "rstrip": false,
      "normalized": false,
      "special": true
    },
    {
      "id": 126213,
      "content": "<|reserved_token_129|>",
      "single_word": false,
      "lstrip": false,
      "rstrip": false,
      "normalized": false,
      "special": true
    },
    {
      "id": 126214,
      "content": "<|reserved_token_130|>",
      "single_word": false,
      "lstrip": false,
      "rstrip": false,
      "normalized": false,
      "special": true
    },
    {
      "id": 126215,
      "content": "<|reserved_token_131|>",
      "single_word": false,
      "lstrip": false,
      "rstrip": false,
      "normalized": false,
      "special": true
    },
    {
      "id": 126216,
      "content": "<|reserved_token_132|>",
      "single_word": false,
      "lstrip": false,
      "rstrip": false,
      "normalized": false,
      "special": true
    },
    {
      "id": 126217,
      "content": "<|reserved_token_133|>",
      "single_word": false,
      "lstrip": false,
      "rstrip": false,
      "normalized": false,
      "special": true
    },
    {
      "id": 126218,
      "content": "<|reserved_token_134|>",
      "single_word": false,
      "lstrip": false,
      "rstrip": false,
      "normalized": false,
      "special": true
    },
    {
      "id": 126219,
      "content": "<|reserved_token_135|>",
      "single_word": false,
      "lstrip": false,
      "rstrip": false,
      "normalized": false,
      "special": true
    },
    {
      "id": 126220,
      "content": "<|reserved_token_136|>",
      "single_word": false,
      "lstrip": false,
      "rstrip": false,
      "normalized": false,
      "special": true
    },
    {
      "id": 126221,
      "content": "<|reserved_token_137|>",
      "single_word": false,
      "lstrip": false,
      "rstrip": false,
      "normalized": false,
      "special": true
    },
    {
      "id": 126222,
      "content": "<|reserved_token_138|>",
      "single_word": false,
      "lstrip": false,
      "rstrip": false,
      "normalized": false,
      "special": true
    },
    {
      "id": 126223,
      "content": "<|reserved_token_139|>",
      "single_word": false,
      "lstrip": false,
      "rstrip": false,
      "normalized": false,
      "special": true
    },
    {
      "id": 126224,
      "content": "<|reserved_token_140|>",
      "single_word": false,
      "lstrip": false,
      "rstrip": false,
      "normalized": false,
      "special": true
    },
    {
      "id": 126225,
      "content": "<|reserved_token_141|>",
      "single_word": false,
      "lstrip": false,
      "rstrip": false,
      "normalized": false,
      "special": true
    },
    {
      "id": 126226,
      "content": "<|reserved_token_142|>",
      "single_word": false,
      "lstrip": false,
      "rstrip": false,
      "normalized": false,
      "special": true
    },
    {
      "id": 126227,
      "content": "<|reserved_token_143|>",
      "single_word": false,
      "lstrip": false,
      "rstrip": false,
      "normalized": false,
      "special": true
    },
    {
      "id": 126228,
      "content": "<|reserved_token_144|>",
      "single_word": false,
      "lstrip": false,
      "rstrip": false,
      "normalized": false,
      "special": true
    },
    {
      "id": 126229,
      "content": "<|reserved_token_145|>",
      "single_word": false,
      "lstrip": false,
      "rstrip": false,
      "normalized": false,
      "special": true
    },
    {
      "id": 126230,
      "content": "<|reserved_token_146|>",
      "single_word": false,
      "lstrip": false,
      "rstrip": false,
      "normalized": false,
      "special": true
    },
    {
      "id": 126231,
      "content": "<|reserved_token_147|>",
      "single_word": false,
      "lstrip": false,
      "rstrip": false,
      "normalized": false,
      "special": true
    },
    {
      "id": 126232,
      "content": "<|reserved_token_148|>",
      "single_word": false,
      "lstrip": false,
      "rstrip": false,
      "normalized": false,
      "special": true
    },
    {
      "id": 126233,
      "content": "<|reserved_token_149|>",
      "single_word": false,
      "lstrip": false,
      "rstrip": false,
      "normalized": false,
      "special": true
    },
    {
      "id": 126234,
      "content": "<|reserved_token_150|>",
      "single_word": false,
      "lstrip": false,
      "rstrip": false,
      "normalized": false,
      "special": true
    },
    {
      "id": 126235,
      "content": "<|reserved_token_151|>",
      "single_word": false,
      "lstrip": false,
      "rstrip": false,
      "normalized": false,
      "special": true
    },
    {
      "id": 126236,
      "content": "<|reserved_token_152|>",
      "single_word": false,
      "lstrip": false,
      "rstrip": false,
      "normalized": false,
      "special": true
    },
    {
      "id": 126237,
      "content": "<|reserved_token_153|>",
      "single_word": false,
      "lstrip": false,
      "rstrip": false,
      "normalized": false,
      "special": true
    },
    {
      "id": 126238,
      "content": "<|reserved_token_154|>",
      "single_word": false,
      "lstrip": false,
      "rstrip": false,
      "normalized": false,
      "special": true
    },
    {
      "id": 126239,
      "content": "<|reserved_token_155|>",
      "single_word": false,
      "lstrip": false,
      "rstrip": false,
      "normalized": false,
      "special": true
    },
    {
      "id": 126240,
      "content": "<|reserved_token_156|>",
      "single_word": false,
      "lstrip": false,
      "rstrip": false,
      "normalized": false,
      "special": true
    },
    {
      "id": 126241,
      "content": "<|reserved_token_157|>",
      "single_word": false,
      "lstrip": false,
      "rstrip": false,
      "normalized": false,
      "special": true
    },
    {
      "id": 126242,
      "content": "<|reserved_token_158|>",
      "single_word": false,
      "lstrip": false,
      "rstrip": false,
      "normalized": false,
      "special": true
    },
    {
      "id": 126243,
      "content": "<|reserved_token_159|>",
      "single_word": false,
      "lstrip": false,
      "rstrip": false,
      "normalized": false,
      "special": true
    },
    {
      "id": 126244,
      "content": "<|reserved_token_160|>",
      "single_word": false,
      "lstrip": false,
      "rstrip": false,
      "normalized": false,
      "special": true
    },
    {
      "id": 126245,
      "content": "<|reserved_token_161|>",
      "single_word": false,
      "lstrip": false,
      "rstrip": false,
      "normalized": false,
      "special": true
    },
    {
      "id": 126246,
      "content": "<|reserved_token_162|>",
      "single_word": false,
      "lstrip": false,
      "rstrip": false,
      "normalized": false,
      "special": true
    },
    {
      "id": 126247,
      "content": "<|reserved_token_163|>",
      "single_word": false,
      "lstrip": false,
      "rstrip": false,
      "normalized": false,
      "special": true
    },
    {
      "id": 126248,
      "content": "<|reserved_token_164|>",
      "single_word": false,
      "lstrip": false,
      "rstrip": false,
      "normalized": false,
      "special": true
    },
    {
      "id": 126249,
      "content": "<|reserved_token_165|>",
      "single_word": false,
      "lstrip": false,
      "rstrip": false,
      "normalized": false,
      "special": true
    },
    {
      "id": 126250,
      "content": "<|reserved_token_166|>",
      "single_word": false,
      "lstrip": false,
      "rstrip": false,
      "normalized": false,
      "special": true
    },
    {
      "id": 126251,
      "content": "<|reserved_token_167|>",
      "single_word": false,
      "lstrip": false,
      "rstrip": false,
      "normalized": false,
      "special": true
    },
    {
      "id": 126252,
      "content": "<|reserved_token_168|>",
      "single_word": false,
      "lstrip": false,
      "rstrip": false,
      "normalized": false,
      "special": true
    },
    {
      "id": 126253,
      "content": "<|reserved_token_169|>",
      "single_word": false,
      "lstrip": false,
      "rstrip": false,
      "normalized": false,
      "special": true
    },
    {
      "id": 126254,
      "content": "<|reserved_token_170|>",
      "single_word": false,
      "lstrip": false,
      "rstrip": false,
      "normalized": false,
      "special": true
    },
    {
      "id": 126255,
      "content": "<|reserved_token_171|>",
      "single_word": false,
      "lstrip": false,
      "rstrip": false,
      "normalized": false,
      "special": true
    },
    {
      "id": 126256,
      "content": "<|reserved_token_172|>",
      "single_word": false,
      "lstrip": false,
      "rstrip": false,
      "normalized": false,
      "special": true
    },
    {
      "id": 126257,
      "content": "<|reserved_token_173|>",
      "single_word": false,
      "lstrip": false,
      "rstrip": false,
      "normalized": false,
      "special": true
    },
    {
      "id": 126258,
      "content": "<|reserved_token_174|>",
      "single_word": false,
      "lstrip": false,
      "rstrip": false,
      "normalized": false,
      "special": true
    },
    {
      "id": 126259,
      "content": "<|reserved_token_175|>",
      "single_word": false,
      "lstrip": false,
      "rstrip": false,
      "normalized": false,
      "special": true
    },
    {
      "id": 126260,
      "content": "<|reserved_token_176|>",
      "single_word": false,
      "lstrip": false,
      "rstrip": false,
      "normalized": false,
      "special": true
    },
    {
      "id": 126261,
      "content": "<|reserved_token_177|>",
      "single_word": false,
      "lstrip": false,
      "rstrip": false,
      "normalized": false,
      "special": true
    },
    {
      "id": 126262,
      "content": "<|reserved_token_178|>",
      "single_word": false,
      "lstrip": false,
      "rstrip": false,
      "normalized": false,
      "special": true
    },
    {
      "id": 126263,
      "content": "<|reserved_token_179|>",
      "single_word": false,
      "lstrip": false,
      "rstrip": false,
      "normalized": false,
      "special": true
    },
    {
      "id": 126264,
      "content": "<|reserved_token_180|>",
      "single_word": false,
      "lstrip": false,
      "rstrip": false,
      "normalized": false,
      "special": true
    },
    {
      "id": 126265,
      "content": "<|reserved_token_181|>",
      "single_word": false,
      "lstrip": false,
      "rstrip": false,
      "normalized": false,
      "special": true
    },
    {
      "id": 126266,
      "content": "<|reserved_token_182|>",
      "single_word": false,
      "lstrip": false,
      "rstrip": false,
      "normalized": false,
      "special": true
    },
    {
      "id": 126267,
      "content": "<|reserved_token_183|>",
      "single_word": false,
      "lstrip": false,
      "rstrip": false,
      "normalized": false,
      "special": true
    },
    {
      "id": 126268,
      "content": "<|reserved_token_184|>",
      "single_word": false,
      "lstrip": false,
      "rstrip": false,
      "normalized": false,
      "special": true
    },
    {
      "id": 126269,
      "content": "<|reserved_token_185|>",
      "single_word": false,
      "lstrip": false,
      "rstrip": false,
      "normalized": false,
      "special": true
    },
    {
      "id": 126270,
      "content": "<|reserved_token_186|>",
      "single_word": false,
      "lstrip": false,
      "rstrip": false,
      "normalized": false,
      "special": true
    },
    {
      "id": 126271,
      "content": "<|reserved_token_187|>",
      "single_word": false,
      "lstrip": false,
      "rstrip": false,
      "normalized": false,
      "special": true
    },
    {
      "id": 126272,
      "content": "<|reserved_token_188|>",
      "single_word": false,
      "lstrip": false,
      "rstrip": false,
      "normalized": false,
      "special": true
    },
    {
      "id": 126273,
      "content": "<|reserved_token_189|>",
      "single_word": false,
      "lstrip": false,
      "rstrip": false,
      "normalized": false,
      "special": true
    },
    {
      "id": 126274,
      "content": "<|reserved_token_190|>",
      "single_word": false,
      "lstrip": false,
      "rstrip": false,
      "normalized": false,
      "special": true
    },
    {
      "id": 126275,
      "content": "<|reserved_token_191|>",
      "single_word": false,
      "lstrip": false,
      "rstrip": false,
      "normalized": false,
      "special": true
    },
    {
      "id": 126276,
      "content": "<|reserved_token_192|>",
      "single_word": false,
      "lstrip": false,
      "rstrip": false,
      "normalized": false,
      "special": true
    },
    {
      "id": 126277,
      "content": "<|reserved_token_193|>",
      "single_word": false,
      "lstrip": false,
      "rstrip": false,
      "normalized": false,
      "special": true
    },
    {
      "id": 126278,
      "content": "<|reserved_token_194|>",
      "single_word": false,
      "lstrip": false,
      "rstrip": false,
      "normalized": false,
      "special": true
    },
    {
      "id": 126279,
      "content": "<|reserved_token_195|>",
      "single_word": false,
      "lstrip": false,
      "rstrip": false,
      "normalized": false,
      "special": true
    },
    {
      "id": 126280,
      "content": "<|reserved_token_196|>",
      "single_word": false,
      "lstrip": false,
      "rstrip": false,
      "normalized": false,
      "special": true
    },
    {
      "id": 126281,
      "content": "<|reserved_token_197|>",
      "single_word": false,
      "lstrip": false,
      "rstrip": false,
      "normalized": false,
      "special": true
    },
    {
      "id": 126282,
      "content": "<|reserved_token_198|>",
      "single_word": false,
      "lstrip": false,
      "rstrip": false,
      "normalized": false,
      "special": true
    },
    {
      "id": 126283,
      "content": "<|reserved_token_199|>",
      "single_word": false,
      "lstrip": false,
      "rstrip": false,
      "normalized": false,
      "special": true
    },
    {
      "id": 126284,
      "content": "<|reserved_token_200|>",
      "single_word": false,
      "lstrip": false,
      "rstrip": false,
      "normalized": false,
      "special": true
    },
    {
      "id": 126285,
      "content": "<|reserved_token_201|>",
      "single_word": false,
      "lstrip": false,
      "rstrip": false,
      "normalized": false,
      "special": true
    },
    {
      "id": 126286,
      "content": "<|reserved_token_202|>",
      "single_word": false,
      "lstrip": false,
      "rstrip": false,
      "normalized": false,
      "special": true
    },
    {
      "id": 126287,
      "content": "<|reserved_token_203|>",
      "single_word": false,
      "lstrip": false,
      "rstrip": false,
      "normalized": false,
      "special": true
    },
    {
      "id": 126288,
      "content": "<|reserved_token_204|>",
      "single_word": false,
      "lstrip": false,
      "rstrip": false,
      "normalized": false,
      "special": true
    },
    {
      "id": 126289,
      "content": "<|reserved_token_205|>",
      "single_word": false,
      "lstrip": false,
      "rstrip": false,
      "normalized": false,
      "special": true
    },
    {
      "id": 126290,
      "content": "<|reserved_token_206|>",
      "single_word": false,
      "lstrip": false,
      "rstrip": false,
      "normalized": false,
      "special": true
    },
    {
      "id": 126291,
      "content": "<|reserved_token_207|>",
      "single_word": false,
      "lstrip": false,
      "rstrip": false,
      "normalized": false,
      "special": true
    },
    {
      "id": 126292,
      "content": "<|reserved_token_208|>",
      "single_word": false,
      "lstrip": false,
      "rstrip": false,
      "normalized": false,
      "special": true
    },
    {
      "id": 126293,
      "content": "<|reserved_token_209|>",
      "single_word": false,
      "lstrip": false,
      "rstrip": false,
      "normalized": false,
      "special": true
    },
    {
      "id": 126294,
      "content": "<|reserved_token_210|>",
      "single_word": false,
      "lstrip": false,
      "rstrip": false,
      "normalized": false,
      "special": true
    },
    {
      "id": 126295,
      "content": "<|reserved_token_211|>",
      "single_word": false,
      "lstrip": false,
      "rstrip": false,
      "normalized": false,
      "special": true
    },
    {
      "id": 126296,
      "content": "<|reserved_token_212|>",
      "single_word": false,
      "lstrip": false,
      "rstrip": false,
      "normalized": false,
      "special": true
    },
    {
      "id": 126297,
      "content": "<|reserved_token_213|>",
      "single_word": false,
      "lstrip": false,
      "rstrip": false,
      "normalized": false,
      "special": true
    },
    {
      "id": 126298,
      "content": "<|reserved_token_214|>",
      "single_word": false,
      "lstrip": false,
      "rstrip": false,
      "normalized": false,
      "special": true
    },
    {
      "id": 126299,
      "content": "<|reserved_token_215|>",
      "single_word": false,
      "lstrip": false,
      "rstrip": false,
      "normalized": false,
      "special": true
    },
    {
      "id": 126300,
      "content": "<|reserved_token_216|>",
      "single_word": false,
      "lstrip": false,
      "rstrip": false,
      "normalized": false,
      "special": true
    },
    {
      "id": 126301,
      "content": "<|reserved_token_217|>",
      "single_word": false,
      "lstrip": false,
      "rstrip": false,
      "normalized": false,
      "special": true
    },
    {
      "id": 126302,
      "content": "<|reserved_token_218|>",
      "single_word": false,
      "lstrip": false,
      "rstrip": false,
      "normalized": false,
      "special": true
    },
    {
      "id": 126303,
      "content": "<|reserved_token_219|>",
      "single_word": false,
      "lstrip": false,
      "rstrip": false,
      "normalized": false,
      "special": true
    },
    {
      "id": 126304,
      "content": "<|reserved_token_220|>",
      "single_word": false,
      "lstrip": false,
      "rstrip": false,
      "normalized": false,
      "special": true
    },
    {
      "id": 126305,
      "content": "<|reserved_token_221|>",
      "single_word": false,
      "lstrip": false,
      "rstrip": false,
      "normalized": false,
      "special": true
    },
    {
      "id": 126306,
      "content": "<|reserved_token_222|>",
      "single_word": false,
      "lstrip": false,
      "rstrip": false,
      "normalized": false,
      "special": true
    },
    {
      "id": 126307,
      "content": "<|reserved_token_223|>",
      "single_word": false,
      "lstrip": false,
      "rstrip": false,
      "normalized": false,
      "special": true
    },
    {
      "id": 126308,
      "content": "<|reserved_token_224|>",
      "single_word": false,
      "lstrip": false,
      "rstrip": false,
      "normalized": false,
      "special": true
    },
    {
      "id": 126309,
      "content": "<|reserved_token_225|>",
      "single_word": false,
      "lstrip": false,
      "rstrip": false,
      "normalized": false,
      "special": true
    },
    {
      "id": 126310,
      "content": "<|reserved_token_226|>",
      "single_word": false,
      "lstrip": false,
      "rstrip": false,
      "normalized": false,
      "special": true
    },
    {
      "id": 126311,
      "content": "<|reserved_token_227|>",
      "single_word": false,
      "lstrip": false,
      "rstrip": false,
      "normalized": false,
      "special": true
    },
    {
      "id": 126312,
      "content": "<|reserved_token_228|>",
      "single_word": false,
      "lstrip": false,
      "rstrip": false,
      "normalized": false,
      "special": true
    },
    {
      "id": 126313,
      "content": "<|reserved_token_229|>",
      "single_word": false,
      "lstrip": false,
      "rstrip": false,
      "normalized": false,
      "special": true
    },
    {
      "id": 126314,
      "content": "<|reserved_token_230|>",
      "single_word": false,
      "lstrip": false,
      "rstrip": false,
      "normalized": false,
      "special": true
    },
    {
      "id": 126315,
      "content": "<|reserved_token_231|>",
      "single_word": false,
      "lstrip": false,
      "rstrip": false,
      "normalized": false,
      "special": true
    },
    {
      "id": 126316,
      "content": "<|reserved_token_232|>",
      "single_word": false,
      "lstrip": false,
      "rstrip": false,
      "normalized": false,
      "special": true
    },
    {
      "id": 126317,
      "content": "<|reserved_token_233|>",
      "single_word": false,
      "lstrip": false,
      "rstrip": false,
      "normalized": false,
      "special": true
    },
    {
      "id": 126318,
      "content": "<|reserved_token_234|>",
      "single_word": false,
      "lstrip": false,
      "rstrip": false,
      "normalized": false,
      "special": true
    },
    {
      "id": 126319,
      "content": "<|reserved_token_235|>",
      "single_word": false,
      "lstrip": false,
      "rstrip": false,
      "normalized": false,
      "special": true
    },
    {
      "id": 126320,
      "content": "<|reserved_token_236|>",
      "single_word": false,
      "lstrip": false,
      "rstrip": false,
      "normalized": false,
      "special": true
    },
    {
      "id": 126321,
      "content": "<|reserved_token_237|>",
      "single_word": false,
      "lstrip": false,
      "rstrip": false,
      "normalized": false,
      "special": true
    },
    {
      "id": 126322,
      "content": "<|reserved_token_238|>",
      "single_word": false,
      "lstrip": false,
      "rstrip": false,
      "normalized": false,
      "special": true
    },
    {
      "id": 126323,
      "content": "<|reserved_token_239|>",
      "single_word": false,
      "lstrip": false,
      "rstrip": false,
      "normalized": false,
      "special": true
    },
    {
      "id": 126324,
      "content": "<|reserved_token_240|>",
      "single_word": false,
      "lstrip": false,
      "rstrip": false,
      "normalized": false,
      "special": true
    },
    {
      "id": 126325,
      "content": "<|reserved_token_241|>",
      "single_word": false,
      "lstrip": false,
      "rstrip": false,
      "normalized": false,
      "special": true
    },
    {
      "id": 126326,
      "content": "<|reserved_token_242|>",
      "single_word": false,
      "lstrip": false,
      "rstrip": false,
      "normalized": false,
      "special": true
    },
    {
      "id": 126327,
      "content": "<|reserved_token_243|>",
      "single_word": false,
      "lstrip": false,
      "rstrip": false,
      "normalized": false,
      "special": true
    },
    {
      "id": 126328,
      "content": "<|reserved_token_244|>",
      "single_word": false,
      "lstrip": false,
      "rstrip": false,
      "normalized": false,
      "special": true
    },
    {
      "id": 126329,
      "content": "<|reserved_token_245|>",
      "single_word": false,
      "lstrip": false,
      "rstrip": false,
      "normalized": false,
      "special": true
    },
    {
      "id": 126330,
      "content": "<|reserved_token_246|>",
      "single_word": false,
      "lstrip": false,
      "rstrip": false,
      "normalized": false,
      "special": true
    },
    {
      "id": 126331,
      "content": "<|reserved_token_247|>",
      "single_word": false,
      "lstrip": false,
      "rstrip": false,
      "normalized": false,
      "special": true
    },
    {
      "id": 126332,
      "content": "<|reserved_token_248|>",
      "single_word": false,
      "lstrip": false,
      "rstrip": false,
      "normalized": false,
      "special": true
    },
    {
      "id": 126333,
      "content": "<|reserved_token_249|>",
      "single_word": false,
      "lstrip": false,
      "rstrip": false,
      "normalized": false,
      "special": true
    },
    {
      "id": 126334,
      "content": "<|reserved_token_250|>",
      "single_word": false,
      "lstrip": false,
      "rstrip": false,
      "normalized": false,
      "special": true
    },
    {
      "id": 126335,
      "content": "<|reserved_token_251|>",
      "single_word": false,
      "lstrip": false,
      "rstrip": false,
      "normalized": false,
      "special": true
    },
    {
      "id": 126336,
      "content": "<|mdm_mask|>",
      "single_word": false,
      "lstrip": false,
      "rstrip": false,
      "normalized": false,
      "special": true
    },
    {
      "id": 126337,
      "content": "<|reserved_token_253|>",
      "single_word": false,
      "lstrip": false,
      "rstrip": false,
      "normalized": false,
      "special": true
    },
    {
      "id": 126338,
      "content": "<|reserved_token_254|>",
      "single_word": false,
      "lstrip": false,
      "rstrip": false,
      "normalized": false,
      "special": true
    },
    {
      "id": 126339,
      "content": "<|reserved_token_255|>",
      "single_word": false,
      "lstrip": false,
      "rstrip": false,
      "normalized": false,
      "special": true
    },
    {
      "id": 126340,
      "content": "<role>",
      "single_word": false,
      "lstrip": false,
      "rstrip": false,
      "normalized": false,
      "special": true
    },
    {
      "id": 126341,
      "content": "</role>",
      "single_word": false,
      "lstrip": false,
      "rstrip": false,
      "normalized": false,
      "special": true
    },
    {
      "id": 126342,
      "content": "<|arithmetic_start|>",
      "single_word": false,
      "lstrip": false,
      "rstrip": false,
      "normalized": false,
      "special": true
    },
    {
      "id": 126343,
      "content": "<|arithmetic_end|>",
      "single_word": false,
      "lstrip": false,
      "rstrip": false,
      "normalized": false,
      "special": true
    },
    {
      "id": 126344,
      "content": "<|number_start|>",
      "single_word": false,
      "lstrip": false,
      "rstrip": false,
      "normalized": false,
      "special": true
    },
    {
      "id": 126345,
      "content": "<|number_end|>",
      "single_word": false,
      "lstrip": false,
      "rstrip": false,
      "normalized": false,
      "special": true
    },
    {
      "id": 126346,
      "content": "<|start_header_id|>",
      "single_word": false,
      "lstrip": false,
      "rstrip": false,
      "normalized": false,
      "special": true
    },
    {
      "id": 126347,
      "content": "<|end_header_id|>",
      "single_word": false,
      "lstrip": false,
      "rstrip": false,
      "normalized": false,
      "special": true
    },
    {
      "id": 126348,
      "content": "<|eot_id|>",
      "single_word": false,
      "lstrip": false,
      "rstrip": false,
      "normalized": false,
      "special": true
    }
  ],
  "normalizer": {
    "type": "NFC"
  },
  "pre_tokenizer": {
    "type": "Sequence",
    "pretokenizers": [
      {
        "type": "Split",
        "pattern": {
          "Regex": "'(?i:[sdmt]|ll|ve|re)|[^\\r\\n\\p{L}\\p{N}]?+\\p{L}+|\\p{N}| ?[^\\s\\p{L}\\p{N}]++[\\r\\n]*|\\s*[\\r\\n]|\\s+(?!\\S)|\\s+"
        },
        "behavior": "Isolated",
        "invert": false
      },
      {
        "type": "ByteLevel",
        "add_prefix_space": false,
        "trim_offsets": true,
        "use_regex": false
      }
    ]
  },
  "post_processor": {
    "type": "ByteLevel",
    "add_prefix_space": true,
    "trim_offsets": false,
    "use_regex": true
  },
  "decoder": {
    "type": "ByteLevel",
    "add_prefix_space": true,
    "trim_offsets": true,
    "use_regex": true
  },
  "model": {
    "type": "BPE",
    "dropout": null,
    "unk_token": null,
    "continuing_subword_prefix": null,
    "end_of_word_suffix": null,
    "fuse_unk": false,
    "byte_fallback": false,
    "ignore_merges": false,
    "vocab": {
      "!": 0,
      "\"": 1,
      "#": 2,
      "$": 3,
      "%": 4,
      "&": 5,
      "'": 6,
      "(": 7,
      ")": 8,
      "*": 9,
      "+": 10,
      ",": 11,
      "-": 12,
      ".": 13,
      "/": 14,
      "0": 15,
      "1": 16,
      "2": 17,
      "3": 18,
      "4": 19,
      "5": 20,
      "6": 21,
      "7": 22,
      "8": 23,
      "9": 24,
      ":": 25,
      ";": 26,
      "<": 27,
      "=": 28,
      ">": 29,
      "?": 30,
      "@": 31,
      "A": 32,
      "B": 33,
      "C": 34,
      "D": 35,
      "E": 36,
      "F": 37,
      "G": 38,
      "H": 39,
      "I": 40,
      "J": 41,
      "K": 42,
      "L": 43,
      "M": 44,
      "N": 45,
      "O": 46,
      "P": 47,
      "Q": 48,
      "R": 49,
      "S": 50,
      "T": 51,
      "U": 52,
      "V": 53,
      "W": 54,
      "X": 55,
      "Y": 56,
      "Z": 57,
      "[": 58,
      "\\": 59,
      "]": 60,
      "^": 61,
      "_": 62,
      "`": 63,
      "a": 64,
      "b": 65,
      "c": 66,
      "d": 67,
      "e": 68,
      "f": 69,
      "g": 70,
      "h": 71,
      "i": 72,
      "j": 73,
      "k": 74,
      "l": 75,
      "m": 76,
      "n": 77,
      "o": 78,
      "p": 79,
      "q": 80,
      "r": 81,
      "s": 82,
      "t": 83,
      "u": 84,
      "v": 85,
      "w": 86,
      "x": 87,
      "y": 88,
      "z": 89,
      "{": 90,
      "|": 91,
      "}": 92,
      "~": 93,
      "¡": 94,
      "¢": 95,
      "£": 96,
      "¤": 97,
      "¥": 98,
      "¦": 99,
      "§": 100,
      "¨": 101,
      "©": 102,
      "ª": 103,
      "«": 104,
      "¬": 105,
      "®": 106,
      "¯": 107,
      "°": 108,
      "±": 109,
      "²": 110,
      "³": 111,
      "´": 112,
      "µ": 113,
      "¶": 114,
      "·": 115,
      "¸": 116,
      "¹": 117,
      "º": 118,
      "»": 119,
      "¼": 120,
      "½": 121,
      "¾": 122,
      "¿": 123,
      "À": 124,
      "Á": 125,
      "Â": 126,
      "Ã": 127,
      "Ä": 128,
      "Å": 129,
      "Æ": 130,
      "Ç": 131,
      "È": 132,
      "É": 133,
      "Ê": 134,
      "Ë": 135,
      "Ì": 136,
      "Í": 137,
      "Î": 138,
      "Ï": 139,
      "Ð": 140,
      "Ñ": 141,
      "Ò": 142,
      "Ó": 143,
      "Ô": 144,
      "Õ": 145,
      "Ö": 146,
      "×": 147,
      "Ø": 148,
      "Ù": 149,
      "Ú": 150,
      "Û": 151,
      "Ü": 152,
      "Ý": 153,
      "Þ": 154,
      "ß": 155,
      "à": 156,
      "á": 157,
      "â": 158,
      "ã": 159,
      "ä": 160,
      "å": 161,
      "æ": 162,
      "ç": 163,
      "è": 164,
      "é": 165,
      "ê": 166,
      "ë": 167,
      "ì": 168,
      "í": 169,
      "î": 170,
      "ï": 171,
      "ð": 172,
      "ñ": 173,
      "ò": 174,
      "ó": 175,
      "ô": 176,
      "õ": 177,
      "ö": 178,
      "÷": 179,
      "ø": 180,
      "ù": 181,
      "ú": 182,
      "û": 183,
      "ü": 184,
      "ý": 185,
      "þ": 186,
      "ÿ": 187,
      "Ā": 188,
      "ā": 189,
      "Ă": 190,
      "ă": 191,
      "Ą": 192,
      "ą": 193,
      "Ć": 194,
      "ć": 195,
      "Ĉ": 196,
      "ĉ": 197,
      "Ċ": 198,
      "ċ": 199,
      "Č": 200,
      "č": 201,
      "Ď": 202,
      "ď": 203,
      "Đ": 204,
      "đ": 205,
      "Ē": 206,
      "ē": 207,
      "Ĕ": 208,
      "ĕ": 209,
      "Ė": 210,
      "ė": 211,
      "Ę": 212,
      "ę": 213,
      "Ě": 214,
      "ě": 215,
      "Ĝ": 216,
      "ĝ": 217,
      "Ğ": 218,
      "ğ": 219,
      "Ġ": 220,
      "ġ": 221,
      "Ģ": 222,
      "ģ": 223,
      "Ĥ": 224,
      "ĥ": 225,
      "Ħ": 226,
      "ħ": 227,
      "Ĩ": 228,
      "ĩ": 229,
      "Ī": 230,
      "ī": 231,
      "Ĭ": 232,
      "ĭ": 233,
      "Į": 234,
      "į": 235,
      "İ": 236,
      "ı": 237,
      "Ĳ": 238,
      "ĳ": 239,
      "Ĵ": 240,
      "ĵ": 241,
      "Ķ": 242,
      "ķ": 243,
      "ĸ": 244,
      "Ĺ": 245,
      "ĺ": 246,
      "Ļ": 247,
      "ļ": 248,
      "Ľ": 249,
      "ľ": 250,
      "Ŀ": 251,
      "ŀ": 252,
      "Ł": 253,
      "ł": 254,
      "Ń": 255,
      "ĠĠ": 256,
      "Ġt": 257,
      "in": 258,
      "Ġa": 259,
      "he": 260,
      "re": 261,
      "on": 262,
      "ĠĠĠĠ": 263,
      "er": 264,
      "at": 265,
      "ä¸": 266,
      "Ġs": 267,
      "Ġthe": 268,
      "or": 269,
      "ï¼": 270,
      "en": 271,
      "Ġc": 272,
      "es": 273,
      "Ġw": 274,
      "it": 275,
      "is": 276,
      "ou": 277,
      "an": 278,
      "ï¼Į": 279,
      "al": 280,
      "Ġf": 281,
      "Ġp": 282,
      "ing": 283,
      "Ġo": 284,
      "Ġb": 285,
      "ed": 286,
      "ar": 287,
      "çļ": 288,
      "Ġan": 289,
      "çļĦ": 290,
      "ãĢ": 291,
      "Ġm": 292,
      "ion": 293,
      "äº": 294,
      "le": 295,
      "Ġin": 296,
      "Ġto": 297,
      "ic": 298,
      "Ġd": 299,
      "Ġof": 300,
      "Ġand": 301,
      "as": 302,
      "âĢ": 303,
      "ro": 304,
      "ĠĠĠ": 305,
      "et": 306,
      "Ġh": 307,
      "Ġth": 308,
      "ct": 309,
      "ent": 310,
      "ãĢĤ": 311,
      "ä»": 312,
      "st": 313,
      "åı": 314,
      "æľ": 315,
      "el": 316,
      "ĠĠĠĠĠĠĠĠ": 317,
      "om": 318,
      "il": 319,
      "Ġn": 320,
      "Ġre": 321,
      "Ġl": 322,
      "è¿": 323,
      "å¤": 324,
      "åħ": 325,
      "Ġe": 326,
      "id": 327,
      "æĺ": 328,
      "ve": 329,
      "am": 330,
      "ĠI": 331,
      "ĠT": 332,
      "Ġg": 333,
      "ĠS": 334,
      "ot": 335,
      "å®": 336,
      "åĪ": 337,
      "im": 338,
      "ä½": 339,
      "Ġy": 340,
      "Ġis": 341,
      "ol": 342,
      "åĲ": 343,
      "ce": 344,
      "åľ": 345,
      "ig": 346,
      "se": 347,
      "ĠC": 348,
      "ut": 349,
      "ä¹": 350,
      "ä¸Ģ": 351,
      "Ġfor": 352,
      "ow": 353,
      "ad": 354,
      "ĠA": 355,
      "ation": 356,
      "ay": 357,
      "æĪ": 358,
      "ur": 359,
      "ly": 360,
      "ch": 361,
      "Ġyou": 362,
      "Ġ(": 363,
      "æĺ¯": 364,
      "Ġu": 365,
      "Ġon": 366,
      "Ġbe": 367,
      "çĶ": 368,
      "å°": 369,
      "ver": 370,
      "if": 371,
      "Ġst": 372,
      "Ġ=": 373,
      "è¯": 374,
      "ul": 375,
      "ç»": 376,
      "ith": 377,
      "Ġthat": 378,
      "åĬ": 379,
      "äºĨ": 380,
      "ä¸į": 381,
      "od": 382,
      "ag": 383,
      "æĹ": 384,
      "ĠM": 385,
      "æĿ": 386,
      "ir": 387,
      "ĠP": 388,
      "ãĢģ": 389,
      "ter": 390,
      "Ġwith": 391,
      "æĸ": 392,
      "ate": 393,
      "ĠĠĠĠĠĠĠ": 394,
      "åĽ": 395,
      "æī": 396,
      "ra": 397,
      "--": 398,
      "æľī": 399,
      "åŃ": 400,
      "åľ¨": 401,
      "Ġcon": 402,
      "Ġit": 403,
      "ä¼": 404,
      "åį": 405,
      "em": 406,
      "è®": 407,
      "ab": 408,
      "Ġas": 409,
      "Ġpro": 410,
      "un": 411,
      "ri": 412,
      "ĠB": 413,
      "ck": 414,
      "her": 415,
      "um": 416,
      "pe": 417,
      "Ġal": 418,
      "est": 419,
      "äºº": 420,
      "å¹": 421,
      "Ġv": 422,
      "âĢĻ": 423,
      "âĢľ": 424,
      "ess": 425,
      "out": 426,
      "ers": 427,
      "å¾": 428,
      "qu": 429,
      "éĩ": 430,
      "pp": 431,
      "åĩ": 432,
      "nd": 433,
      "ist": 434,
      "ĠD": 435,
      "us": 436,
      "Ġwh": 437,
      "Ġwe": 438,
      "å¥": 439,
      "å·": 440,
      "ill": 441,
      "ĠF": 442,
      "ew": 443,
      "th": 444,
      "å¼": 445,
      "ĠW": 446,
      "âĢĿ": 447,
      "ke": 448,
      "Ġare": 449,
      "res": 450,
      "åĨ": 451,
      "our": 452,
      "Ġor": 453,
      "ĠR": 454,
      "èĢ": 455,
      "ĉĉ": 456,
      "and": 457,
      "Ġcom": 458,
      "ĥ½": 459,
      "å¸": 460,
      "ĠH": 461,
      "ore": 462,
      "nt": 463,
      "Ġhe": 464,
      "ort": 465,
      "Ġex": 466,
      "åº": 467,
      "ĠThe": 468,
      "op": 469,
      "ht": 470,
      "ĠL": 471,
      "ment": 472,
      "Ġde": 473,
      "è¿Ļ": 474,
      "os": 475,
      "æĪĳ": 476,
      "Ġ\"": 477,
      "éĢ": 478,
      "å¯": 479,
      "**": 480,
      "ity": 481,
      "Ġat": 482,
      "è¡": 483,
      "çĽ": 484,
      "pt": 485,
      "end": 486,
      "èµ": 487,
      "ld": 488,
      "ä¸ª": 489,
      "ect": 490,
      "..": 491,
      "//": 492,
      "ĠN": 493,
      "Ġha": 494,
      "rom": 495,
      "ant": 496,
      "Ġ{": 497,
      "Ġr": 498,
      "ä¸Ń": 499,
      "Ġ*": 500,
      "Ġthis": 501,
      "lo": 502,
      "ain": 503,
      "æķ": 504,
      "ĠE": 505,
      "æĢ": 506,
      "è§": 507,
      "ĠG": 508,
      "å¤§": 509,
      "æĬ": 510,
      "åĴ": 511,
      "æł": 512,
      "art": 513,
      "Ġsu": 514,
      "ä¸º": 515,
      "çİ": 516,
      "iv": 517,
      "å¿": 518,
      "åĮ": 519,
      "ä¸Ĭ": 520,
      "çľ": 521,
      "ive": 522,
      "åİ": 523,
      "ies": 524,
      "Ġse": 525,
      "Ġnot": 526,
      "Ġby": 527,
      "æŃ": 528,
      "Ġwas": 529,
      "éĹ": 530,
      "ä»¥": 531,
      "æĿ¥": 532,
      "ine": 533,
      "ight": 534,
      "ex": 535,
      "èĩ": 536,
      "Ġ-": 537,
      "åĴĮ": 538,
      "ust": 539,
      "ç§": 540,
      "ĠO": 541,
      "ĠĠĠĠĠĠĠĠĠĠĠ": 542,
      "age": 543,
      "ä»ĸ": 544,
      "è´": 545,
      "Ġfrom": 546,
      "ame": 547,
      "Ġsh": 548,
      "¦ģ": 549,
      "éĿ": 550,
      "ud": 551,
      "ue": 552,
      "Ġch": 553,
      "æĥ": 554,
      "ction": 555,
      "æ²": 556,
      "all": 557,
      "Ġ$": 558,
      "æĹ¶": 559,
      "Ġcan": 560,
      "Ġhave": 561,
      "ure": 562,
      "Ġyour": 563,
      "åĪ°": 564,
      "æ°": 565,
      "oo": 566,
      "è¦ģ": 567,
      "çī": 568,
      "ial": 569,
      "iz": 570,
      "per": 571,
      "å½": 572,
      "oc": 573,
      "å±": 574,
      "éĻ": 575,
      "æİ": 576,
      "æĶ": 577,
      "åı¯": 578,
      "ff": 579,
      "ost": 580,
      "pl": 581,
      "åĳ": 582,
      "æŀ": 583,
      "ub": 584,
      "å°±": 585,
      "Ġle": 586,
      "red": 587,
      "ac": 588,
      "ä¼ļ": 589,
      "ard": 590,
      "æ³": 591,
      "çº": 592,
      "ge": 593,
      "çĶ¨": 594,
      "èĥ½": 595,
      "ell": 596,
      "ould": 597,
      "ass": 598,
      "åĩº": 599,
      "able": 600,
      "âĢĻs": 601,
      "éģ": 602,
      "ack": 603,
      "----": 604,
      "ome": 605,
      "ind": 606,
      "rou": 607,
      "è½": 608,
      "çĶŁ": 609,
      "Âł": 610,
      "Ġus": 611,
      "ide": 612,
      "int": 613,
      "ä¿": 614,
      "cl": 615,
      "Ġint": 616,
      "Ġj": 617,
      "ä¹Ł": 618,
      "çĿ": 619,
      "æĭ": 620,
      "ä»¬": 621,
      "ä¸ĭ": 622,
      "Ġab": 623,
      "Ġif": 624,
      "orm": 625,
      "å¯¹": 626,
      "Ġwill": 627,
      "ice": 628,
      "ï¼ļ": 629,
      "ult": 630,
      "ast": 631,
      "ĠJ": 632,
      "å¹´": 633,
      "æµ": 634,
      "è¾": 635,
      "Ġk": 636,
      "æ¯": 637,
      "ap": 638,
      "å¦": 639,
      "Ġdo": 640,
      "Ġpl": 641,
      "ak": 642,
      "urn": 643,
      "Ġ}": 644,
      "æĦ": 645,
      "Ġwor": 646,
      "are": 647,
      "ip": 648,
      "ç¬": 649,
      "åĵ": 650,
      "ä½ł": 651,
      "ĠU": 652,
      "ĠĠĠĠĠĠĠĠĠĠĠĠĠĠĠĠ": 653,
      "Ġall": 654,
      "ase": 655,
      "imp": 656,
      "åľ°": 657,
      "è¿ĩ": 658,
      "ated": 659,
      "åĲİ": 660,
      "ber": 661,
      "åıĳ": 662,
      "çĲ": 663,
      "çŃ": 664,
      "ime": 665,
      "èĩª": 666,
      "Ġad": 667,
      "åī": 668,
      "og": 669,
      "åŃĲ": 670,
      "ions": 671,
      "Ġtr": 672,
      "ile": 673,
      "é¢": 674,
      "äºİ": 675,
      "Ġne": 676,
      "ç«": 677,
      "The": 678,
      "one": 679,
      "ook": 680,
      "Ġwhe": 681,
      "Ġcl": 682,
      "éĺ": 683,
      "ally": 684,
      "è¡Į": 685,
      "act": 686,
      "è¯´": 687,
      "ĠâĢľ": 688,
      "Ġ'": 689,
      "æĮ": 690,
      "ans": 691,
      "çĿĢ": 692,
      "ich": 693,
      "cc": 694,
      "ther": 695,
      "Ġme": 696,
      "con": 697,
      "'s": 698,
      "Ġcomp": 699,
      "åĽ½": 700,
      "ite": 701,
      "ep": 702,
      "åŃ¦": 703,
      "æĪĲ": 704,
      "Ġcont": 705,
      "Ġres": 706,
      "å¤ļ": 707,
      "lic": 708,
      "ä¾": 709,
      "ary": 710,
      "ä½ľ": 711,
      "ef": 712,
      "ä¹ĭ": 713,
      "Ġen": 714,
      "æīĢ": 715,
      "æĸ¹": 716,
      "ail": 717,
      "ĠIn": 718,
      "å®¶": 719,
      "ib": 720,
      "ign": 721,
      "ance": 722,
      "Ġhas": 723,
      "ere": 724,
      "ear": 725,
      "ong": 726,
      "éĤ": 727,
      "Ġgo": 728,
      "éģĵ": 729,
      "ace": 730,
      "Ġbut": 731,
      "å¥½": 732,
      "Ġout": 733,
      "ç®": 734,
      "ĠSt": 735,
      "av": 736,
      "ake": 737,
      "æ¬": 738,
      "()": 739,
      "Ġso": 740,
      "å¾Ĺ": 741,
      "éĥ½": 742,
      "ĠTh": 743,
      "ext": 744,
      "åĬ¨": 745,
      "èĤ": 746,
      "ru": 747,
      "ç½": 748,
      "get": 749,
      "ring": 750,
      "å°ı": 751,
      "çĦ": 752,
      "åĪĨ": 753,
      "çĤ": 754,
      "ä¸ļ": 755,
      "ous": 756,
      "éĿ¢": 757,
      "åŁ": 758,
      "ry": 759,
      "Ġup": 760,
      "du": 761,
      "form": 762,
      "so": 763,
      "turn": 764,
      "æ¸": 765,
      "ä¹Ī": 766,
      "çİ°": 767,
      "ations": 768,
      "ire": 769,
      "gh": 770,
      "==": 771,
      "åħ¬": 772,
      "æ±": 773,
      "ata": 774,
      "ord": 775,
      "èĢĮ": 776,
      "çŁ": 777,
      "Ġmore": 778,
      "ress": 779,
      "ang": 780,
      "Ġ+": 781,
      "Ġnew": 782,
      "è·": 783,
      "ia": 784,
      "æľ¬": 785,
      "å¿ĥ": 786,
      "è¿ĺ": 787,
      "çľĭ": 788,
      "å¼Ģ": 789,
      "ach": 790,
      "very": 791,
      "Ġthey": 792,
      "åģ": 793,
      "åĢ": 794,
      "Ġ\\": 795,
      "æ´": 796,
      "Ġ<": 797,
      "ĠĠĠĠĠ": 798,
      "elf": 799,
      "éĤ£": 800,
      "ount": 801,
      "Ġtheir": 802,
      "å®ŀ": 803,
      "çĦ¶": 804,
      "St": 805,
      "çĲĨ": 806,
      "å¦Ĥ": 807,
      "å®ļ": 808,
      "ĠV": 809,
      "Ġone": 810,
      "Ġmy": 811,
      "ents": 812,
      "ll": 813,
      "æĽ": 814,
      "ical": 815,
      "ç»ı": 816,
      "è¿Ľ": 817,
      "Ġwhich": 818,
      "ition": 819,
      "å¤©": 820,
      "ath": 821,
      "ence": 822,
      "å·¥": 823,
      "ens": 824,
      "ĠK": 825,
      "Ġqu": 826,
      "ï¼Ł": 827,
      "erv": 828,
      "éĥ": 829,
      "æ²¡": 830,
      "Ġ[": 831,
      "Ġun": 832,
      "ype": 833,
      "Ġget": 834,
      "ject": 835,
      "éķ": 836,
      "ç¬¬": 837,
      "ĠY": 838,
      "Ġar": 839,
      "com": 840,
      "vel": 841,
      "ree": 842,
      "éĩĮ": 843,
      "é«": 844,
      "ie": 845,
      "In": 846,
      "ĠâĢ": 847,
      "ode": 848,
      "åħ¶": 849,
      "Ġ&": 850,
      "é«ĺ": 851,
      "é¡": 852,
      "è°": 853,
      "Ġper": 854,
      "->": 855,
      "Ġli": 856,
      "äºĭ": 857,
      "æ³ķ": 858,
      "ï¼ģ": 859,
      "Ġdis": 860,
      "Ġman": 861,
      "åĬĽ": 862,
      "ä½ĵ": 863,
      "ä¸İ": 864,
      "****": 865,
      "Ġabout": 866,
      "ove": 867,
      "ory": 868,
      "Ġour": 869,
      "åīį": 870,
      "æı": 871,
      "Ġapp": 872,
      "own": 873,
      "ks": 874,
      "Ġev": 875,
      "Ġsp": 876,
      "éĽ": 877,
      "æį": 878,
      "au": 879,
      "Ġother": 880,
      "ph": 881,
      "ild": 882,
      "ont": 883,
      "åĿ": 884,
      "åĲĮ": 885,
      "ä¸Ģä¸ª": 886,
      "çŃī": 887,
      "æĻ": 888,
      "åİ»": 889,
      "éĹ´": 890,
      "é£": 891,
      "çĤ¹": 892,
      "ays": 893,
      "ors": 894,
      "reat": 895,
      "æľº": 896,
      "Ġany": 897,
      "Ġtime": 898,
      "ely": 899,
      "Ġhis": 900,
      "Ġwho": 901,
      "åĲĪ": 902,
      "Ġimp": 903,
      "ound": 904,
      "ç¨": 905,
      "iew": 906,
      "éļ": 907,
      "æĥħ": 908,
      "èµ·": 909,
      "row": 910,
      "Ġalso": 911,
      "èī": 912,
      "ert": 913,
      "Ġpart": 914,
      "Ġsc": 915,
      "éĥ¨": 916,
      "ark": 917,
      "å§": 918,
      "è¶": 919,
      "ä¸»": 920,
      "ĠĠĠĠĠĠĠĠĠĠĠĠĠĠĠ": 921,
      "ize": 922,
      "åħ¨": 923,
      "å¾Ī": 924,
      "çĻ": 925,
      "ublic": 926,
      "ft": 927,
      "Ġoff": 928,
      "Ġwere": 929,
      "æĸ°": 930,
      ").": 931,
      "te": 932,
      "ings": 933,
      "æģ": 934,
      "èĬ": 935,
      "æĹ¥": 936,
      "æĥ³": 937,
      "ec": 938,
      "ick": 939,
      "Ġpre": 940,
      "Ġ//": 941,
      "ink": 942,
      "),": 943,
      "Ġreturn": 944,
      "Ġag": 945,
      "ç§į": 946,
      "Ġthere": 947,
      "äº§": 948,
      "æīĭ": 949,
      "Ġwhen": 950,
      "eg": 951,
      "æĢ§": 952,
      "åĨħ": 953,
      "::": 954,
      "ĠCh": 955,
      "ç¾": 956,
      "--------": 957,
      "èĢħ": 958,
      "ob": 959,
      "å¥¹": 960,
      "å£": 961,
      "Ġwork": 962,
      "ĠIt": 963,
      "èº": 964,
      "éķ¿": 965,
      "æľĢ": 966,
      "éĢļ": 967,
      "clud": 968,
      "åħ³": 969,
      "çĶµ": 970,
      "Ġsome": 971,
      "Ġkn": 972,
      "åĮĸ": 973,
      "æĹł": 974,
      "low": 975,
      "vers": 976,
      "æĦı": 977,
      "äºĽ": 978,
      "å½ĵ": 979,
      "å°Ĩ": 980,
      "=\"": 981,
      "ÂłÂł": 982,
      "è¢": 983,
      "åĬł": 984,
      "Ġte": 985,
      "ç¤": 986,
      "åº¦": 987,
      "alue": 988,
      "Ġthem": 989,
      "ç©": 990,
      "Ġfun": 991,
      "éĶ": 992,
      "çĪ": 993,
      "Ġsa": 994,
      "åºĶ": 995,
      "æ¶": 996,
      "Ġover": 997,
      "æŁ": 998,
      "æł·": 999,
      "iff": 1000,
      "åı¯ä»¥": 1001,
      "ov": 1002,
      "æĸĩ": 1003,
      "æĺİ": 1004,
      "ose": 1005,
      "éľ": 1006,
      "Ġbeen": 1007,
      "eth": 1008,
      "ool": 1009,
      "éĩį": 1010,
      "irst": 1011,
      "æķ°": 1012,
      "ces": 1013,
      "ä½Ĩ": 1014,
      "å·±": 1015,
      "rib": 1016,
      "Ġwould": 1017,
      "ä¸ī": 1018,
      "pec": 1019,
      "Ġyear": 1020,
      "èº«": 1021,
      "ï¼ī": 1022,
      "old": 1023,
      "Ġam": 1024,
      "èģ": 1025,
      "ç¥": 1026,
      "èĭ": 1027,
      "Ġhad": 1028,
      "Ġlike": 1029,
      "åıª": 1030,
      "Ġacc": 1031,
      "ï¼Ī": 1032,
      "èĦ": 1033,
      "Ġro": 1034,
      "æ°´": 1035,
      "çĽ¸": 1036,
      "Ġno": 1037,
      "_t": 1038,
      "ull": 1039,
      "Ġthan": 1040,
      "ï¼Ľ": 1041,
      "è®¾": 1042,
      "å¸Ĥ": 1043,
      "we": 1044,
      "ual": 1045,
      "å»": 1046,
      "èĩªå·±": 1047,
      "tern": 1048,
      "lect": 1049,
      "Ġneed": 1050,
      "ä½į": 1051,
      "\",": 1052,
      "Ġwhat": 1053,
      "åĽł": 1054,
      "å¤ĸ": 1055,
      "ific": 1056,
      "ption": 1057,
      "åħ¥": 1058,
      "æľĪ": 1059,
      "åķ": 1060,
      "__": 1061,
      "nder": 1062,
      "yst": 1063,
      "åĵģ": 1064,
      "æİ¥": 1065,
      "æĪĳä»¬": 1066,
      "ys": 1067,
      "ates": 1068,
      "Ġpe": 1069,
      "(\"": 1070,
      "Ġuse": 1071,
      "çĥ": 1072,
      "ric": 1073,
      "Ġcomm": 1074,
      "çķ": 1075,
      "éĩı": 1076,
      "ĠThis": 1077,
      "æŀľ": 1078,
      "ä»İ": 1079,
      "èµĦ": 1080,
      "ater": 1081,
      "éħ": 1082,
      "ish": 1083,
      "èĲ": 1084,
      "çŁ¥": 1085,
      "Ġind": 1086,
      "ER": 1087,
      "Ġadd": 1088,
      "æıĲ": 1089,
      "amp": 1090,
      "åĪ¶": 1091,
      "##": 1092,
      "Ġdef": 1093,
      "Ġher": 1094,
      "Ġdes": 1095,
      "ç³": 1096,
      "Ġits": 1097,
      "Ġem": 1098,
      "Ġhow": 1099,
      "åıĬ": 1100,
      "äºĮ": 1101,
      "Ġfe": 1102,
      "ax": 1103,
      "ĠWe": 1104,
      "æ¯Ķ": 1105,
      "che": 1106,
      "âĢĻt": 1107,
      "å¢": 1108,
      "ram": 1109,
      "pect": 1110,
      "æĽ´": 1111,
      "ener": 1112,
      "éĩĳ": 1113,
      "set": 1114,
      "Ġmay": 1115,
      "æŃ¤": 1116,
      "Ġset": 1117,
      "oint": 1118,
      "Ġinto": 1119,
      "å¹¶": 1120,
      "wo": 1121,
      "åı¸": 1122,
      "çī©": 1123,
      "ons": 1124,
      "Ġjust": 1125,
      "åľº": 1126,
      "rit": 1127,
      "Ġi": 1128,
      "çģ": 1129,
      "çł": 1130,
      "æ²¡æľī": 1131,
      "bs": 1132,
      "li": 1133,
      "å¤´": 1134,
      "éĴ": 1135,
      "èĥ": 1136,
      "igh": 1137,
      "ments": 1138,
      "ne": 1139,
      "æ¬¡": 1140,
      "erm": 1141,
      "ps": 1142,
      "è¢«": 1143,
      "å®ī": 1144,
      "ç¼": 1145,
      "fter": 1146,
      "Ġcol": 1147,
      "ystem": 1148,
      "Ġbet": 1149,
      "ç®¡": 1150,
      "port": 1151,
      "...": 1152,
      "ä¿¡": 1153,
      "cess": 1154,
      "put": 1155,
      "æ·": 1156,
      "ç±": 1157,
      "æŃ£": 1158,
      "ç´": 1159,
      "ss": 1160,
      "åĬ¡": 1161,
      "æľŁ": 1162,
      "ä¸¤": 1163,
      "IN": 1164,
      "è¡¨": 1165,
      "ty": 1166,
      "çĽ®": 1167,
      "Ġrec": 1168,
      "æ°Ķ": 1169,
      "Ġprov": 1170,
      "ade": 1171,
      "èĪ": 1172,
      "ä¿Ŀ": 1173,
      "ning": 1174,
      "çĸ": 1175,
      "Ġ/": 1176,
      "Ġ:": 1177,
      "ople": 1178,
      "iss": 1179,
      "ise": 1180,
      "å·²": 1181,
      "cre": 1182,
      "ious": 1183,
      "Ġcons": 1184,
      "è£": 1185,
      "ange": 1186,
      "ian": 1187,
      "ond": 1188,
      "ause": 1189,
      "åĸ": 1190,
      "Ġonly": 1191,
      "Ġ@": 1192,
      "æĪĸ": 1193,
      "Th": 1194,
      "les": 1195,
      "åĲį": 1196,
      "æ¡": 1197,
      "Ġunder": 1198,
      "å¸¸": 1199,
      "Ġbec": 1200,
      "ãĢĤâĢĿ": 1201,
      "è®©": 1202,
      "Ġass": 1203,
      "ç¡": 1204,
      "è®¡": 1205,
      "ä½¿": 1206,
      "åĽŀ": 1207,
      "Ġdiff": 1208,
      "ating": 1209,
      "ev": 1210,
      "riv": 1211,
      "aram": 1212,
      "aw": 1213,
      "Ġpr": 1214,
      "ç²": 1215,
      "ix": 1216,
      "ON": 1217,
      "Ġfirst": 1218,
      "ĠâĢĵ": 1219,
      "Ġact": 1220,
      "Ġ|": 1221,
      "Ġbu": 1222,
      "iel": 1223,
      "up": 1224,
      "éĹ®": 1225,
      "ful": 1226,
      "'t": 1227,
      "Ġhel": 1228,
      "å¹³": 1229,
      "ç¨ĭ": 1230,
      "ä»Ģ": 1231,
      "ting": 1232,
      "åįģ": 1233,
      "oid": 1234,
      "ç³»": 1235,
      "åĮº": 1236,
      "round": 1237,
      "åħ¬åı¸": 1238,
      "ä»¶": 1239,
      "çĹ": 1240,
      "å»º": 1241,
      "Ġknow": 1242,
      "æĦŁ": 1243,
      "Ġtra": 1244,
      "ä»Ģä¹Ī": 1245,
      "ng": 1246,
      "çī¹": 1247,
      "Ġclass": 1248,
      "Ġpos": 1249,
      "Ġ.": 1250,
      "åĪ©": 1251,
      "err": 1252,
      "Ġmake": 1253,
      "Ġreg": 1254,
      "Ġpeople": 1255,
      "rough": 1256,
      "è½¦": 1257,
      "åĲĳ": 1258,
      "ble": 1259,
      "Ġ#": 1260,
      "Ġthese": 1261,
      "åģļ": 1262,
      "</": 1263,
      "ãĢĭ": 1264,
      "als": 1265,
      "èĢģ": 1266,
      "ãĢĬ": 1267,
      "æ»": 1268,
      "ç»Ļ": 1269,
      "é©": 1270,
      "ility": 1271,
      "Ġpublic": 1272,
      "Ġmod": 1273,
      "âĢ¦": 1274,
      "âĢĶ": 1275,
      "èį": 1276,
      "ced": 1277,
      "éĵ": 1278,
      "Ġim": 1279,
      "è§£": 1280,
      "pr": 1281,
      "pro": 1282,
      "ities": 1283,
      "Ġco": 1284,
      "Ġshe": 1285,
      "ï¼ļâĢľ": 1286,
      "ç¾İ": 1287,
      "åı£": 1288,
      "æĤ": 1289,
      "ĠHe": 1290,
      "line": 1291,
      "sh": 1292,
      "å¼ı": 1293,
      "pport": 1294,
      "Ġinclud": 1295,
      "ĉĉĉĉ": 1296,
      "ient": 1297,
      "ood": 1298,
      "åĳĺ": 1299,
      "æį®": 1300,
      "hat": 1301,
      "è¯Ŀ": 1302,
      "Ġph": 1303,
      "Ġke": 1304,
      "æ´»": 1305,
      "éª": 1306,
      "Ġtwo": 1307,
      "Ġnum": 1308,
      "ield": 1309,
      "Ġthen": 1310,
      "çľŁ": 1311,
      "ç»ĵ": 1312,
      "ible": 1313,
      "ics": 1314,
      "====": 1315,
      "Ġback": 1316,
      "bject": 1317,
      "io": 1318,
      "åŁº": 1319,
      "ug": 1320,
      "å±ķ": 1321,
      "ork": 1322,
      "mer": 1323,
      "é¦": 1324,
      "Ġmost": 1325,
      "ract": 1326,
      "Ġrequ": 1327,
      "oth": 1328,
      "Ġshould": 1329,
      "å¤Ħ": 1330,
      "its": 1331,
      "ular": 1332,
      "Ġatt": 1333,
      "ict": 1334,
      "Ġconst": 1335,
      "åŀ": 1336,
      "Ġprodu": 1337,
      "é»": 1338,
      "Ġsee": 1339,
      "ç¦": 1340,
      "',": 1341,
      "ok": 1342,
      "ative": 1343,
      "èī²": 1344,
      "Ġlook": 1345,
      "Ġself": 1346,
      "è¿°": 1347,
      "Ġstud": 1348,
      "æķĻ": 1349,
      "æīĵ": 1350,
      "ough": 1351,
      "Ġthrough": 1352,
      "ruct": 1353,
      "Ġdata": 1354,
      "Ġfin": 1355,
      "ĠCom": 1356,
      "wn": 1357,
      "arg": 1358,
      "Ġwant": 1359,
      "Ġinv": 1360,
      "self": 1361,
      "ï¼Įè¿Ļ": 1362,
      "ased": 1363,
      "RE": 1364,
      "ä»£": 1365,
      "Ġvar": 1366,
      "Ġwell": 1367,
      "ied": 1368,
      "olog": 1369,
      "é£İ": 1370,
      "atch": 1371,
      "Ġ*/": 1372,
      "ures": 1373,
      "åħĥ": 1374,
      "èĻ": 1375,
      "Ġhelp": 1376,
      "ices": 1377,
      "é¢ĺ": 1378,
      "Ġrem": 1379,
      "Ġevery": 1380,
      "åĻ": 1381,
      "è·¯": 1382,
      "arch": 1383,
      "Ġinst": 1384,
      "atic": 1385,
      "çĽ´": 1386,
      "Ġwhere": 1387,
      "fore": 1388,
      "Ġend": 1389,
      "read": 1390,
      "ues": 1391,
      "ĠPro": 1392,
      "day": 1393,
      "éĹ¨": 1394,
      "åĪ«": 1395,
      "å°ĳ": 1396,
      "æĬĬ": 1397,
      "let": 1398,
      "Ġfunction": 1399,
      "ĠYou": 1400,
      "Ġrel": 1401,
      "Ġcould": 1402,
      "hed": 1403,
      "è§ģ": 1404,
      "ST": 1405,
      "å¥³": 1406,
      "åıĺ": 1407,
      "Ġserv": 1408,
      "Ġspec": 1409,
      "åĶ": 1410,
      "ollow": 1411,
      "erson": 1412,
      "def": 1413,
      "æĶ¶": 1414,
      "Ġel": 1415,
      "ead": 1416,
      "æľ¯": 1417,
      "åİŁ": 1418,
      "AT": 1419,
      "ily": 1420,
      "der": 1421,
      "ä¸ľ": 1422,
      "formation": 1423,
      "åıĪ": 1424,
      "¥¿": 1425,
      "hen": 1426,
      "Ġsaid": 1427,
      "ä»ĸä»¬": 1428,
      "åįķ": 1429,
      "urre": 1430,
      "Ġtrans": 1431,
      "********": 1432,
      "cy": 1433,
      "ä»»": 1434,
      "Ġsuch": 1435,
      "Ġent": 1436,
      "èİ": 1437,
      "Ġdiffere": 1438,
      "ĠUn": 1439,
      "Ġused": 1440,
      "ock": 1441,
      "å°±æĺ¯": 1442,
      "ribut": 1443,
      "äº¤": 1444,
      "Ġexper": 1445,
      "çĶ±": 1446,
      "æµģ": 1447,
      "æ°ĳ": 1448,
      "Ġeff": 1449,
      "ç½ĳ": 1450,
      "))": 1451,
      "æĬĢ": 1452,
      "Ex": 1453,
      "ident": 1454,
      "èĩ³": 1455,
      "uch": 1456,
      "åĨį": 1457,
      "éľĢ": 1458,
      "Ġafter": 1459,
      "ife": 1460,
      "ash": 1461,
      "è¥¿": 1462,
      "Ġread": 1463,
      "ms": 1464,
      "Ġinter": 1465,
      "_d": 1466,
      "ower": 1467,
      "æīį": 1468,
      "Ġsm": 1469,
      "sp": 1470,
      "Ġvery": 1471,
      "æľį": 1472,
      "ox": 1473,
      "çĻ½": 1474,
      "è£ħ": 1475,
      "eng": 1476,
      "çº¿": 1477,
      "ator": 1478,
      "æĶ¾": 1479,
      "å¼º": 1480,
      "åĻ¨": 1481,
      "åħī": 1482,
      "iness": 1483,
      "Ġright": 1484,
      "çľ¼": 1485,
      "nce": 1486,
      "Ġway": 1487,
      "ĉĉĉ": 1488,
      "Ġstart": 1489,
      "Ġresult": 1490,
      "Ġfind": 1491,
      "Ġdet": 1492,
      "Ġac": 1493,
      "Ġmany": 1494,
      "itt": 1495,
      "any": 1496,
      "ray": 1497,
      "('": 1498,
      "cri": 1499,
      "ï¼Įä¸į": 1500,
      "Ġeven": 1501,
      "çĭ": 1502,
      "pos": 1503,
      "ï¼ĮæĪĳ": 1504,
      "Ġgood": 1505,
      "ave": 1506,
      "ãģ": 1507,
      "ward": 1508,
      "æ®": 1509,
      "name": 1510,
      "....": 1511,
      "Pro": 1512,
      "è´¨": 1513,
      "ational": 1514,
      "éĢī": 1515,
      "air": 1516,
      "åĦ": 1517,
      "ee": 1518,
      "åĲĦ": 1519,
      "ages": 1520,
      "Ġbecause": 1521,
      "å®¹": 1522,
      "ç½®": 1523,
      "Ġlong": 1524,
      "ner": 1525,
      "AR": 1526,
      "ç¥ŀ": 1527,
      "aking": 1528,
      "Ġx": 1529,
      "ä¼ł": 1530,
      "å®Į": 1531,
      "alth": 1532,
      "å£°": 1533,
      "to": 1534,
      "ience": 1535,
      "ars": 1536,
      "æĮģ": 1537,
      "ĠIf": 1538,
      "_s": 1539,
      "åıĹ": 1540,
      "åħĪ": 1541,
      "{\\": 1542,
      "Ġdoes": 1543,
      "æµ·": 1544,
      "velop": 1545,
      "ĠĠĠĠĠĠĠĠĠĠĠĠĠĠĠĠĠĠĠ": 1546,
      "app": 1547,
      "å¸Ī": 1548,
      "Ġcall": 1549,
      "Ġnow": 1550,
      "åĩł": 1551,
      "å¸¦": 1552,
      "æ±Ĥ": 1553,
      "tt": 1554,
      "è¯¥": 1555,
      "Ġdid": 1556,
      "å·¥ä½ľ": 1557,
      "Ġmin": 1558,
      "dd": 1559,
      "åħ·": 1560,
      "lock": 1561,
      "ç«ĭ": 1562,
      "æº": 1563,
      "Ġext": 1564,
      "å¤ĩ": 1565,
      "åŀĭ": 1566,
      "Ġra": 1567,
      "uring": 1568,
      "Ġplay": 1569,
      "Ġfollow": 1570,
      "è½¬": 1571,
      "Ġpres": 1572,
      "``": 1573,
      "fig": 1574,
      "åĦ¿": 1575,
      "EN": 1576,
      "ource": 1577,
      "Ġpol": 1578,
      "Ġche": 1579,
      "ä¹¦": 1580,
      "æłĩ": 1581,
      "uth": 1582,
      "è¿Ļä¸ª": 1583,
      "ited": 1584,
      "ank": 1585,
      "led": 1586,
      "æł¼": 1587,
      "ense": 1588,
      "æĢ»": 1589,
      "å½¢": 1590,
      "ä¸ĩ": 1591,
      "roup": 1592,
      "log": 1593,
      "Ġyears": 1594,
      "other": 1595,
      "ï¼Įä½Ĩ": 1596,
      "Ġloc": 1597,
      "ç»Ħ": 1598,
      "è¿Ľè¡Į": 1599,
      "OR": 1600,
      "Ġdon": 1601,
      "åĽĽ": 1602,
      "éŁ": 1603,
      "ale": 1604,
      "ç§ĳ": 1605,
      "co": 1606,
      "Ġhigh": 1607,
      "ins": 1608,
      "Ġshow": 1609,
      "è¿ŀ": 1610,
      "ç»Ł": 1611,
      "Ġgreat": 1612,
      "Ġ==": 1613,
      "the": 1614,
      "usiness": 1615,
      "ts": 1616,
      "æĬ¥": 1617,
      "åĢĻ": 1618,
      "æĮĩ": 1619,
      "Ġtest": 1620,
      "èµ°": 1621,
      "æ¸ħ": 1622,
      "Ġgu": 1623,
      "å±±": 1624,
      "æ£": 1625,
      "lement": 1626,
      "Ġform": 1627,
      "åĮħ": 1628,
      "éĿŀ": 1629,
      "èĮ": 1630,
      "els": 1631,
      "ç±»": 1632,
      "Ġcre": 1633,
      "irect": 1634,
      "Ġdown": 1635,
      "åĽ¾": 1636,
      "ection": 1637,
      "this": 1638,
      ".com": 1639,
      "Ġ_": 1640,
      "ä»·": 1641,
      "æĪĺ": 1642,
      "view": 1643,
      "gram": 1644,
      "Ġown": 1645,
      "å¤ª": 1646,
      "è¿Ĳ": 1647,
      "ç¤º": 1648,
      "ever": 1649,
      "vent": 1650,
      "é¡¹": 1651,
      "Ġsystem": 1652,
      "Ġhim": 1653,
      "ma": 1654,
      "Ġhere": 1655,
      "Ġdec": 1656,
      "urrent": 1657,
      "æģ¯": 1658,
      "æ¯ı": 1659,
      "pen": 1660,
      "Ġusing": 1661,
      "ween": 1662,
      "olut": 1663,
      "ä½ķ": 1664,
      "æ¨": 1665,
      "It": 1666,
      "å½±": 1667,
      "IT": 1668,
      "Ġvalue": 1669,
      "Ġmuch": 1670,
      "Ġeach": 1671,
      "We": 1672,
      "Ġexp": 1673,
      "å¯¼": 1674,
      "æ¼": 1675,
      "Ġmon": 1676,
      "Cont": 1677,
      "ized": 1678,
      "ç©º": 1679,
      "tr": 1680,
      "ethod": 1681,
      "å²": 1682,
      "AL": 1683,
      "import": 1684,
      "ines": 1685,
      "ÂłÂłÂł": 1686,
      "ä¸ĸ": 1687,
      "ature": 1688,
      "Ġstr": 1689,
      "Ġimport": 1690,
      "Ġref": 1691,
      "return": 1692,
      "_p": 1693,
      "æĶ¿": 1694,
      "Ġcour": 1695,
      "åķĨ": 1696,
      "è®¤": 1697,
      "Ġinformation": 1698,
      "Ġthink": 1699,
      "è±": 1700,
      "_f": 1701,
      "ID": 1702,
      "ames": 1703,
      "è§ī": 1704,
      "Ġbel": 1705,
      "cond": 1706,
      "_m": 1707,
      "æĹ¶éĹ´": 1708,
      "çİĭ": 1709,
      "Ġsign": 1710,
      "åŁİ": 1711,
      "Ġsub": 1712,
      "ĠAnd": 1713,
      "ç¡®": 1714,
      "ä¸ĵ": 1715,
      "æĳ": 1716,
      "Ġname": 1717,
      "è°ĥ": 1718,
      "Ġfl": 1719,
      "èĢĥ": 1720,
      "ined": 1721,
      "Ġdist": 1722,
      ".get": 1723,
      "ä¸įæĺ¯": 1724,
      "_c": 1725,
      "æŃ¥": 1726,
      "è¾¹": 1727,
      "Ġperson": 1728,
      "cept": 1729,
      "åĥ": 1730,
      "çħ": 1731,
      "of": 1732,
      "Ġdifferent": 1733,
      "----------------": 1734,
      "æĸĻ": 1735,
      "è§Ħ": 1736,
      "æķ´": 1737,
      "ĠAn": 1738,
      "SE": 1739,
      "Ġchar": 1740,
      "ĠFor": 1741,
      "å¿«": 1742,
      "Ġbest": 1743,
      "è®°": 1744,
      "Ġbetween": 1745,
      "Ġlist": 1746,
      "Ġsur": 1747,
      "oy": 1748,
      "Ġbefore": 1749,
      "Ġagain": 1750,
      "ann": 1751,
      "éĻ¢": 1752,
      "ym": 1753,
      "æīĢè¿°": 1754,
      "è¯ģ": 1755,
      "ght": 1756,
      "ä¾¿": 1757,
      "èĬĤ": 1758,
      "Ġhand": 1759,
      "gan": 1760,
      "arket": 1761,
      "pon": 1762,
      "Ġcor": 1763,
      "fo": 1764,
      "ĠEx": 1765,
      "ually": 1766,
      "ref": 1767,
      "ç®Ĺ": 1768,
      "add": 1769,
      "èĤ¡": 1770,
      "Ġav": 1771,
      "äºĨä¸Ģ": 1772,
      "æ¢": 1773,
      "Ġcase": 1774,
      "Ġbeing": 1775,
      "çĬ": 1776,
      "ten": 1777,
      "æĪ·": 1778,
      "Ġgener": 1779,
      "imes": 1780,
      "çº§": 1781,
      "ä¸ŃåĽ½": 1782,
      "ement": 1783,
      "å¨": 1784,
      "å·²ç»ı": 1785,
      "yn": 1786,
      "ired": 1787,
      "Ġnumber": 1788,
      "ince": 1789,
      "ery": 1790,
      "æĹ¶åĢĻ": 1791,
      "åıĸ": 1792,
      "æķĪ": 1793,
      "yp": 1794,
      "arn": 1795,
      "æł¹": 1796,
      "Name": 1797,
      "ä¸Ķ": 1798,
      "chn": 1799,
      "Ġgr": 1800,
      "Ġtake": 1801,
      "Com": 1802,
      "Ġthose": 1803,
      "ĠAr": 1804,
      "LE": 1805,
      "ason": 1806,
      "å®ĥ": 1807,
      "Ch": 1808,
      "ï¼Įåľ¨": 1809,
      "AN": 1810,
      "æ³¨": 1811,
      "ton": 1812,
      "Ġday": 1813,
      "ĠAl": 1814,
      "Ġ!": 1815,
      "Ġwhile": 1816,
      "å¼ł": 1817,
      "ä»Ĭ": 1818,
      "Ġval": 1819,
      "anc": 1820,
      "éĽĨ": 1821,
      "ember": 1822,
      "çŁ¥éģĵ": 1823,
      "-b": 1824,
      "ek": 1825,
      "ĠSh": 1826,
      "Ġpoint": 1827,
      "åįĹ": 1828,
      "Ġprocess": 1829,
      "Ġmed": 1830,
      "Type": 1831,
      "ustom": 1832,
      ".m": 1833,
      "ĠQ": 1834,
      "ody": 1835,
      "Ġins": 1836,
      "åĩĨ": 1837,
      "ĠNew": 1838,
      "å¦Ĥæŀľ": 1839,
      "Ġser": 1840,
      "Ġbl": 1841,
      "ider": 1842,
      "Ġdevelop": 1843,
      ".S": 1844,
      "ren": 1845,
      "éĺŁ": 1846,
      "eb": 1847,
      "ç¬ĳ": 1848,
      ".s": 1849,
      "Ġfact": 1850,
      "Ġmade": 1851,
      "éĢł": 1852,
      "Ġsame": 1853,
      "åĨĽ": 1854,
      "èģĶ": 1855,
      "Ġstate": 1856,
      "ample": 1857,
      "ï¼Įä»ĸ": 1858,
      "èħ": 1859,
      "çļĦäºº": 1860,
      "ateg": 1861,
      "æĿ¡": 1862,
      "é¥": 1863,
      "Ġsom": 1864,
      "ality": 1865,
      "ness": 1866,
      "ives": 1867,
      "åıį": 1868,
      "Ġsupport": 1869,
      "Con": 1870,
      "hip": 1871,
      "èĬ±": 1872,
      "åį´": 1873,
      "åŃĺ": 1874,
      "åĥı": 1875,
      "ouse": 1876,
      "equ": 1877,
      "ç¬¬ä¸Ģ": 1878,
      "åı°": 1879,
      "alk": 1880,
      "Ġpost": 1881,
      "çª": 1882,
      "è§Ĩ": 1883,
      "angu": 1884,
      "way": 1885,
      "çĪ±": 1886,
      "éļ¾": 1887,
      "æĺĵ": 1888,
      "è¾¾": 1889,
      "æħ": 1890,
      "Ġvis": 1891,
      "right": 1892,
      "ctions": 1893,
      "String": 1894,
      "é©¬": 1895,
      "ify": 1896,
      "raph": 1897,
      "æŀĦ": 1898,
      "åĮ»": 1899,
      "Ġcar": 1900,
      "åĽłä¸º": 1901,
      "ä½ı": 1902,
      "ç¦»": 1903,
      ".\"": 1904,
      "æĶ¯": 1905,
      "_{": 1906,
      "Ġfil": 1907,
      "æĿĥ": 1908,
      "Ġfound": 1909,
      "çİ°åľ¨": 1910,
      "è´¹": 1911,
      "çĲĥ": 1912,
      "äºĶ": 1913,
      "Ġcount": 1914,
      "ĠĠĠĠĠĠĠĠĠ": 1915,
      "æĬķ": 1916,
      "ç²¾": 1917,
      "Ġed": 1918,
      "ç¤¾": 1919,
      "tain": 1920,
      "This": 1921,
      "val": 1922,
      "Ġpat": 1923,
      "iet": 1924,
      "Id": 1925,
      "è¾ĥ": 1926,
      "load": 1927,
      "Ġart": 1928,
      "æİ§": 1929,
      "å¤į": 1930,
      "Ġworld": 1931,
      "éĻĲ": 1932,
      "ier": 1933,
      "ered": 1934,
      "ather": 1935,
      "ware": 1936,
      "ants": 1937,
      "åı·": 1938,
      "åĢ¼": 1939,
      "æĸ½": 1940,
      "az": 1941,
      "Ġelse": 1942,
      "å§ĭ": 1943,
      "Ġ>": 1944,
      "chool": 1945,
      "Ġboth": 1946,
      "æļ": 1947,
      "Ġlast": 1948,
      "è¿ĳ": 1949,
      "Ġbusiness": 1950,
      "_C": 1951,
      "Ġï¼Į": 1952,
      "æĪ¿": 1953,
      "çķĮ": 1954,
      "ï¼Įä¸Ģ": 1955,
      "ï¼ĮèĢĮ": 1956,
      "Ġfam": 1957,
      "ream": 1958,
      "lease": 1959,
      "åĬŁ": 1960,
      "Ġ=>": 1961,
      "åĨµ": 1962,
      "Ġproduct": 1963,
      "ah": 1964,
      "ĠAs": 1965,
      "çĥŃ": 1966,
      "rol": 1967,
      "Ġlife": 1968,
      "alse": 1969,
      "æĢĿ": 1970,
      "_b": 1971,
      "æĸ¯": 1972,
      "ä¾Ľ": 1973,
      "éĹ®é¢ĺ": 1974,
      "land": 1975,
      "æ¨¡": 1976,
      "ault": 1977,
      "Ġprovid": 1978,
      "åĪĻ": 1979,
      "ven": 1980,
      "Ġap": 1981,
      "ional": 1982,
      "åŃĹ": 1983,
      "æ·±": 1984,
      "ä¾ĭ": 1985,
      "åıĤ": 1986,
      "åĪĽ": 1987,
      "æ²»": 1988,
      "Ġrep": 1989,
      "Ġerr": 1990,
      "akes": 1991,
      "èĲ¥": 1992,
      "Ġlet": 1993,
      "-s": 1994,
      "åĲ¬": 1995,
      "éľĢè¦ģ": 1996,
      "åĮĹ": 1997,
      "å¢ŀ": 1998,
      "ters": 1999,
      "åĬŀ": 2000,
      "Ġrun": 2001,
      "çĹħ": 2002,
      "Ġhome": 2003,
      "æĿ¿": 2004,
      ".p": 2005,
      "Ġsk": 2006,
      "éĢļè¿ĩ": 2007,
      "æ¶Ī": 2008,
      "çİ¯": 2009,
      ".c": 2010,
      "æĢİ": 2011,
      "åĨ³": 2012,
      "è¯·": 2013,
      "Ġbook": 2014,
      "rivate": 2015,
      "ï¼Įä½ł": 2016,
      "ä¼ģ": 2017,
      "anguage": 2018,
      "min": 2019,
      "Ġcle": 2020,
      "åĳ¨": 2021,
      "Ġmust": 2022,
      "Ġtype": 2023,
      "çīĩ": 2024,
      "åĳĬ": 2025,
      "æĴ": 2026,
      "ared": 2027,
      "è¶Ĭ": 2028,
      "ask": 2029,
      "ey": 2030,
      "ivers": 2031,
      "oun": 2032,
      "Ġdesign": 2033,
      "æºĲ": 2034,
      "ument": 2035,
      "Ġdep": 2036,
      ".d": 2037,
      "éĺ²": 2038,
      "ote": 2039,
      "Ġeffect": 2040,
      "æ¸¸": 2041,
      "Res": 2042,
      "ĠĠĠĠĠĠĠĠĠĠĠĠĠĠĠĠĠĠĠĠĠĠĠĠĠĠĠĠĠĠĠĠ": 2043,
      "ĠĠĠĠĠĠ": 2044,
      "Ġchild": 2045,
      "ology": 2046,
      "è¯Ń": 2047,
      "çļĦä¸Ģ": 2048,
      "Ġappro": 2049,
      "ccess": 2050,
      "Ġlead": 2051,
      "ç«ł": 2052,
      "uc": 2053,
      "åį³": 2054,
      "çłĶ": 2055,
      "Ġprogram": 2056,
      "erest": 2057,
      "å®¢": 2058,
      "é¢Ĩ": 2059,
      "æĶ¹": 2060,
      "arm": 2061,
      "hes": 2062,
      "Ġinf": 2063,
      "less": 2064,
      "Ġreally": 2065,
      "ï¼Įä¹Ł": 2066,
      "ä½¿çĶ¨": 2067,
      "Ġpartic": 2068,
      "://": 2069,
      "è®º": 2070,
      "ĠHow": 2071,
      "son": 2072,
      "Ġequ": 2073,
      "str": 2074,
      "ways": 2075,
      "Ġpur": 2076,
      "ä¼ĺ": 2077,
      "ĠBut": 2078,
      "Ġposs": 2079,
      "å¹²": 2080,
      "å¸ĥ": 2081,
      "ential": 2082,
      "éħį": 2083,
      "inal": 2084,
      "essage": 2085,
      "ern": 2086,
      "åĭ": 2087,
      "To": 2088,
      "è¿ĺæĺ¯": 2089,
      "è§Ĥ": 2090,
      "ets": 2091,
      "ists": 2092,
      "è¯Ĩ": 2093,
      "Ġwithout": 2094,
      "åı¯èĥ½": 2095,
      "Ġtop": 2096,
      "ç®¡çĲĨ": 2097,
      "æ¡Ī": 2098,
      "åıĳå±ķ": 2099,
      "ital": 2100,
      "ä¹ł": 2101,
      "è¨": 2102,
      "å¹¿": 2103,
      "Ġtrue": 2104,
      "ified": 2105,
      "Ġmain": 2106,
      "æİ¨": 2107,
      "Ġob": 2108,
      "Ġbre": 2109,
      "Ġmat": 2110,
      "Ġstill": 2111,
      "æŀĹ": 2112,
      "Ġcommun": 2113,
      "æĬĢæľ¯": 2114,
      "ä½İ": 2115,
      "IC": 2116,
      "Ġdel": 2117,
      "æŁ¥": 2118,
      "æľª": 2119,
      "è®®": 2120,
      "Ġcare": 2121,
      "ES": 2122,
      "Ġvoid": 2123,
      "éĢŁ": 2124,
      "åİĭ": 2125,
      "ĠDe": 2126,
      "for": 2127,
      "iven": 2128,
      "AC": 2129,
      "ĠCl": 2130,
      "æł¡": 2131,
      "\">": 2132,
      "Ġdisc": 2133,
      "ization": 2134,
      "æ¥": 2135,
      "è¯ķ": 2136,
      "Ġaround": 2137,
      "Ġreal": 2138,
      "è®¸": 2139,
      "Ġz": 2140,
      "uss": 2141,
      "ases": 2142,
      "Ġquest": 2143,
      "ĠCon": 2144,
      "uff": 2145,
      "æ»¡": 2146,
      "ross": 2147,
      "åĲ§": 2148,
      "ĠTr": 2149,
      "é¾": 2150,
      "è¨Ģ": 2151,
      "riend": 2152,
      "æīĢä»¥": 2153,
      "éļı": 2154,
      "Ġprof": 2155,
      "å¿ħ": 2156,
      "}}": 2157,
      "Ġeas": 2158,
      "éŁ³": 2159,
      "åĳ½": 2160,
      "cent": 2161,
      "-t": 2162,
      "åĪ°äºĨ": 2163,
      "Ġtry": 2164,
      "gg": 2165,
      "Ar": 2166,
      "opy": 2167,
      "param": 2168,
      "Ġfree": 2169,
      "stand": 2170,
      "Ġlo": 2171,
      "Ġgoing": 2172,
      "Ġopt": 2173,
      "Ġproper": 2174,
      "ining": 2175,
      "loy": 2176,
      "ä¼ģä¸ļ": 2177,
      "åŃ©": 2178,
      "å°Ķ": 2179,
      "ving": 2180,
      "è½»": 2181,
      "ĠPl": 2182,
      "Ġ$\\": 2183,
      "çı": 2184,
      "åįİ": 2185,
      "erg": 2186,
      "å¤Ł": 2187,
      "ä¹Ĳ": 2188,
      "ception": 2189,
      "ĠSe": 2190,
      "ç»Ń": 2191,
      "].": 2192,
      "oot": 2193,
      "æĺ¾": 2194,
      "ength": 2195,
      "åħ±": 2196,
      "mber": 2197,
      "çĻ¾": 2198,
      "æľĽ": 2199,
      "-d": 2200,
      "Ġmarket": 2201,
      "Ġmem": 2202,
      "Ġwrit": 2203,
      "Ġsay": 2204,
      "Ġpass": 2205,
      "Ġconf": 2206,
      "çİĩ": 2207,
      "ç«Ļ": 2208,
      "Ġincre": 2209,
      "////": 2210,
      "rid": 2211,
      "æľįåĬ¡": 2212,
      "å¾®": 2213,
      "Ġ)": 2214,
      "è¿Ļæł·": 2215,
      "æĲ": 2216,
      ".,": 2217,
      "æŃ»": 2218,
      "ĠWh": 2219,
      "ision": 2220,
      "æĬ¤": 2221,
      "åĽ¢": 2222,
      "Ġtri": 2223,
      "bers": 2224,
      "rite": 2225,
      "Ġtoo": 2226,
      "oss": 2227,
      "man": 2228,
      "éĻ¤": 2229,
      "æĢģ": 2230,
      "arent": 2231,
      "_S": 2232,
      "Ġtechn": 2233,
      "Ġlevel": 2234,
      "Ġadv": 2235,
      "List": 2236,
      "ĠSo": 2237,
      "Ġorder": 2238,
      "here": 2239,
      "ĠThey": 2240,
      "over": 2241,
      "Ġplace": 2242,
      "iqu": 2243,
      "Ġallow": 2244,
      "æŀģ": 2245,
      "und": 2246,
      "Ġhealth": 2247,
      "èĤ²": 2248,
      "ailable": 2249,
      "Ġproble": 2250,
      "Ġcurrent": 2251,
      "ml": 2252,
      "å¼ķ": 2253,
      "åĲĥ": 2254,
      "ik": 2255,
      "çº¢": 2256,
      "Ġoper": 2257,
      "Ġsmall": 2258,
      "æĸŃ": 2259,
      "Ġcontin": 2260,
      "å¾·": 2261,
      "####": 2262,
      "ĠThere": 2263,
      "Ġsecond": 2264,
      "åĺ": 2265,
      "Ġprot": 2266,
      "ency": 2267,
      "_P": 2268,
      "æĢİä¹Ī": 2269,
      "lection": 2270,
      "ients": 2271,
      "Ġperform": 2272,
      "vert": 2273,
      "Ġthree": 2274,
      "\":": 2275,
      "Ġmonth": 2276,
      "æµĭ": 2277,
      "],": 2278,
      "ished": 2279,
      "sc": 2280,
      "Ġ%": 2281,
      "å£«": 2282,
      "è·Ł": 2283,
      "indow": 2284,
      "Ġhapp": 2285,
      "Ġteam": 2286,
      "ç¢": 2287,
      "åĬ©": 2288,
      "ism": 2289,
      "èµĽ": 2290,
      "ush": 2291,
      "å¤±": 2292,
      "Ġterm": 2293,
      "work": 2294,
      "Ġlanguage": 2295,
      "Ġfile": 2296,
      "ved": 2297,
      "========": 2298,
      "ability": 2299,
      "äººçļĦ": 2300,
      "Â·": 2301,
      "ural": 2302,
      "Ġduring": 2303,
      "Ġlot": 2304,
      "Ġopen": 2305,
      "çģ«": 2306,
      "yle": 2307,
      "Ġiss": 2308,
      "ittle": 2309,
      "lex": 2310,
      "sw": 2311,
      "arly": 2312,
      "ought": 2313,
      "èĩªå·±çļĦ": 2314,
      "Ġbuild": 2315,
      "åıĭ": 2316,
      "ute": 2317,
      "Ġlove": 2318,
      "ĠZ": 2319,
      "-f": 2320,
      "roll": 2321,
      "å¡": 2322,
      "ĠX": 2323,
      "æĭī": 2324,
      "èı": 2325,
      "arget": 2326,
      "åħĭ": 2327,
      "Ġline": 2328,
      "ule": 2329,
      "ä¸ŃçļĦ": 2330,
      "åĵį": 2331,
      "bsite": 2332,
      "umm": 2333,
      "æĥħåĨµ": 2334,
      "text": 2335,
      "Ġcent": 2336,
      "Ġmethod": 2337,
      "Ġnext": 2338,
      "be": 2339,
      "ä¹ī": 2340,
      "å¾Ģ": 2341,
      "éªĮ": 2342,
      "çħ§": 2343,
      "æ®µ": 2344,
      "not": 2345,
      "ems": 2346,
      "Ġ,": 2347,
      "cript": 2348,
      "ä¿®": 2349,
      "mp": 2350,
      "Ġfew": 2351,
      "math": 2352,
      "Data": 2353,
      "rem": 2354,
      "è¶³": 2355,
      "æ¸©": 2356,
      "thing": 2357,
      "Ġcustom": 2358,
      "define": 2359,
      "é£Ł": 2360,
      "Ġreport": 2361,
      "ĠRes": 2362,
      "ivid": 2363,
      "Ġest": 2364,
      "Ġanal": 2365,
      "ï¼Įå¹¶": 2366,
      "æ¹": 2367,
      "AS": 2368,
      "Ġthings": 2369,
      "åºķ": 2370,
      "['": 2371,
      "What": 2372,
      "Ġrest": 2373,
      "Ġmet": 2374,
      "ww": 2375,
      "ething": 2376,
      "Ġrece": 2377,
      "ç¬¬äºĮ": 2378,
      "uthor": 2379,
      "An": 2380,
      "å±Ģ": 2381,
      "æĺ¯ä¸Ģ": 2382,
      "è¿ľ": 2383,
      "Ġhead": 2384,
      "_l": 2385,
      "âĢĻre": 2386,
      "aj": 2387,
      "lete": 2388,
      "Ġdirect": 2389,
      "èµ·æĿ¥": 2390,
      "æī¾": 2391,
      "çĮ": 2392,
      "Ġpay": 2393,
      "itions": 2394,
      "ration": 2395,
      "ral": 2396,
      "DE": 2397,
      "rr": 2398,
      "par": 2399,
      "ç§°": 2400,
      "ponse": 2401,
      "ï¼ĮéĤ£": 2402,
      "å¢ĥ": 2403,
      "Ġinterest": 2404,
      "att": 2405,
      "raw": 2406,
      "èİ·": 2407,
      "oard": 2408,
      "éĢĤ": 2409,
      "Ġstring": 2410,
      "Ġproject": 2411,
      "ä»½": 2412,
      "nect": 2413,
      "ĠRe": 2414,
      "è±¡": 2415,
      "atus": 2416,
      "Ġkeep": 2417,
      "AM": 2418,
      "Ġet": 2419,
      "Ġplan": 2420,
      "ĠTo": 2421,
      "reg": 2422,
      "abel": 2423,
      "Ġbetter": 2424,
      "Ġstand": 2425,
      "æİĴ": 2426,
      "é¦ĸ": 2427,
      "Ġfeel": 2428,
      "iving": 2429,
      "ds": 2430,
      "ron": 2431,
      "äº²": 2432,
      "meric": 2433,
      "string": 2434,
      ".h": 2435,
      "æĿİ": 2436,
      "ĠInd": 2437,
      "èĲ½": 2438,
      "class": 2439,
      "åĪĩ": 2440,
      "As": 2441,
      "\")": 2442,
      "çľģ": 2443,
      "å±ŀ": 2444,
      "ling": 2445,
      "ç©¶": 2446,
      "Ġide": 2447,
      "ering": 2448,
      "aut": 2449,
      "Ġmight": 2450,
      "ser": 2451,
      "åĸľ": 2452,
      "éĺ³": 2453,
      "play": 2454,
      "Ġalways": 2455,
      "çĬ¶": 2456,
      "ott": 2457,
      "ission": 2458,
      "ï¼Įå°±": 2459,
      "çĶ·": 2460,
      "ertain": 2461,
      "ä¼Ĺ": 2462,
      "Get": 2463,
      "ĠIs": 2464,
      "-m": 2465,
      "Ġnull": 2466,
      "ç»Ĩ": 2467,
      "ior": 2468,
      "Ġsit": 2469,
      ".C": 2470,
      "åķĬ": 2471,
      "ically": 2472,
      "by": 2473,
      "Ġcheck": 2474,
      "RO": 2475,
      "æĿĲ": 2476,
      "LL": 2477,
      "Ġweek": 2478,
      "éĥ½æĺ¯": 2479,
      "Ġfr": 2480,
      "åĳ¢": 2481,
      "Ġsl": 2482,
      "Ġexpl": 2483,
      "new": 2484,
      "éĩĩ": 2485,
      "åĲĹ": 2486,
      "ves": 2487,
      "å·ŀ": 2488,
      "Ġimportant": 2489,
      "ĠOn": 2490,
      "æ±Ł": 2491,
      "éĻħ": 2492,
      ".t": 2493,
      "back": 2494,
      "æ¬¾": 2495,
      "You": 2496,
      "èĩ´": 2497,
      "Ġcr": 2498,
      "comm": 2499,
      "']": 2500,
      "Sh": 2501,
      "icle": 2502,
      "ç»´": 2503,
      "rac": 2504,
      "ç±³": 2505,
      "å±Ĥ": 2506,
      "lob": 2507,
      "æĵ": 2508,
      "Ġexpect": 2509,
      "äºĳ": 2510,
      "_T": 2511,
      "åĬ¿": 2512,
      "Ġâ": 2513,
      "Ġsize": 2514,
      "çļĦæĹ¶åĢĻ": 2515,
      "Ġkey": 2516,
      "Ġsim": 2517,
      "äº§åĵģ": 2518,
      "è¶ħ": 2519,
      "Ġsoc": 2520,
      "åħ»": 2521,
      "å¼Ģå§ĭ": 2522,
      "çº¦": 2523,
      "Ġincluding": 2524,
      ".f": 2525,
      "Ġexperience": 2526,
      "ç»Ī": 2527,
      "Ġnon": 2528,
      "ç«¯": 2529,
      "ç´ł": 2530,
      "If": 2531,
      "Ġcook": 2532,
      "IS": 2533,
      "Ġlittle": 2534,
      "âĢ¦âĢ¦": 2535,
      "}$": 2536,
      "Ġput": 2537,
      "Ġfollowing": 2538,
      "é¢Ħ": 2539,
      "Ġsomething": 2540,
      "Ġavailable": 2541,
      "ION": 2542,
      "($": 2543,
      "çŁ³": 2544,
      "Ġanother": 2545,
      "Ġ///": 2546,
      "åįĩ": 2547,
      "Ġpower": 2548,
      "Ġpresent": 2549,
      "ĠSp": 2550,
      "Ġbr": 2551,
      "Ġsince": 2552,
      "cal": 2553,
      "ĠCol": 2554,
      "Ġcond": 2555,
      "ĠAll": 2556,
      "ç³»ç»Ł": 2557,
      "ately": 2558,
      "ç¿": 2559,
      "Ġservice": 2560,
      "Ġorgan": 2561,
      "version": 2562,
      "Ġgrow": 2563,
      "ively": 2564,
      "ç®Ģ": 2565,
      "ium": 2566,
      "oh": 2567,
      "åıĮ": 2568,
      "Ġaut": 2569,
      "Ġapplic": 2570,
      "Ġfield": 2571,
      "å©": 2572,
      "éĿĴ": 2573,
      "orn": 2574,
      "face": 2575,
      "ats": 2576,
      ",âĢĿ": 2577,
      "Ġarg": 2578,
      "æĺŁ": 2579,
      "åħ¶ä»ĸ": 2580,
      "rist": 2581,
      "èĦ¸": 2582,
      "eter": 2583,
      "arge": 2584,
      "For": 2585,
      "date": 2586,
      "Ġprivate": 2587,
      "-c": 2588,
      "ï¼Įä»¥": 2589,
      "æ¬¢": 2590,
      "Ġlaw": 2591,
      "oci": 2592,
      "çĶŁæ´»": 2593,
      "ä¿¡æģ¯": 2594,
      "olution": 2595,
      "itive": 2596,
      "Ġaff": 2597,
      "Ġprovide": 2598,
      "Ġwater": 2599,
      "åİĨ": 2600,
      "Ġobject": 2601,
      "Ġwithin": 2602,
      "èŀ": 2603,
      "reen": 2604,
      "ï¼ŁâĢĿ": 2605,
      "Ġdi": 2606,
      "Ġsure": 2607,
      "ĠShe": 2608,
      ".g": 2609,
      "af": 2610,
      "oney": 2611,
      "ĠPh": 2612,
      "****************": 2613,
      "ED": 2614,
      "vious": 2615,
      "åĤ": 2616,
      "Ġsupp": 2617,
      "uck": 2618,
      "åł": 2619,
      "Ġ--": 2620,
      "ger": 2621,
      "Ġold": 2622,
      "_M": 2623,
      "requ": 2624,
      "ï¼ĮâĢľ": 2625,
      "CT": 2626,
      "_n": 2627,
      "Ġinvest": 2628,
      "æķ°æį®": 2629,
      "Ġonline": 2630,
      "Ġdev": 2631,
      "ĠWhat": 2632,
      "iron": 2633,
      "æĹ©": 2634,
      "åĩ»": 2635,
      "Ġgroup": 2636,
      "FF": 2637,
      "è¿ĻäºĽ": 2638,
      "è¡Ģ": 2639,
      "erence": 2640,
      "Ġve": 2641,
      "#define": 2642,
      "ava": 2643,
      "Ġcome": 2644,
      "Ġless": 2645,
      "ç§¯": 2646,
      "UT": 2647,
      "Ġ!=": 2648,
      "ãĤ": 2649,
      "ories": 2650,
      "Ġcost": 2651,
      "Ġmult": 2652,
      "Ġview": 2653,
      "ĠSc": 2654,
      "åįĬ": 2655,
      "Ġmanag": 2656,
      "ait": 2657,
      "Ġnever": 2658,
      "Ġaddition": 2659,
      "Ġwebsite": 2660,
      "é¾Ļ": 2661,
      "ĠAd": 2662,
      "/*": 2663,
      "ails": 2664,
      "Ġsimp": 2665,
      "duct": 2666,
      "æĿĳ": 2667,
      "æķħ": 2668,
      "åĪļ": 2669,
      "htt": 2670,
      "å®Ŀ": 2671,
      "æĮī": 2672,
      "æ£Ģ": 2673,
      "Ġtem": 2674,
      "ump": 2675,
      "ĠAmeric": 2676,
      "Ġinc": 2677,
      "ination": 2678,
      "çļĦæĺ¯": 2679,
      "é»ĳ": 2680,
      ");": 2681,
      "Ġemp": 2682,
      "View": 2683,
      "Ġfriend": 2684,
      "Ġcompany": 2685,
      "Ġgot": 2686,
      "Ġbig": 2687,
      "è´£": 2688,
      "éŃ": 2689,
      "ivity": 2690,
      "éĻ©": 2691,
      "const": 2692,
      "Ġspe": 2693,
      "^{": 2694,
      "Ġaccess": 2695,
      "med": 2696,
      "Ġgive": 2697,
      "ains": 2698,
      "ret": 2699,
      "åŃ©åŃĲ": 2700,
      "itle": 2701,
      "èģĮ": 2702,
      "æĻ¯": 2703,
      "Cl": 2704,
      "èĻ½": 2705,
      "rop": 2706,
      "var": 2707,
      "Ġcell": 2708,
      "Ġfamily": 2709,
      "å¾Īå¤ļ": 2710,
      "unction": 2711,
      "Ġchange": 2712,
      "å¸Ĥåľº": 2713,
      "èĭ±": 2714,
      "odel": 2715,
      "ä¸ĬçļĦ": 2716,
      "è§Ĵ": 2717,
      "Ġmodel": 2718,
      "Ġmov": 2719,
      "uild": 2720,
      "åĪĹ": 2721,
      "ĠâĢĺ": 2722,
      "ä»ħ": 2723,
      "clude": 2724,
      "Ġunderstand": 2725,
      "å¤§çļĦ": 2726,
      "éĶĻ": 2727,
      "Value": 2728,
      "Tr": 2729,
      "Ġgiven": 2730,
      "ours": 2731,
      "ĠÐ": 2732,
      "ape": 2733,
      "Ġappe": 2734,
      "rap": 2735,
      "Col": 2736,
      "èĪ¬": 2737,
      "ler": 2738,
      "iversity": 2739,
      "Ġchang": 2740,
      "ä¾Ŀ": 2741,
      "âĢĶâĢĶ": 2742,
      "AP": 2743,
      "ention": 2744,
      "ï¼ģâĢĿ": 2745,
      "Ġstruct": 2746,
      "(f": 2747,
      "gle": 2748,
      "ope": 2749,
      "value": 2750,
      "Ġschool": 2751,
      "åĽ´": 2752,
      "Ġfinal": 2753,
      "key": 2754,
      "åĿĹ": 2755,
      "wit": 2756,
      "ervice": 2757,
      "Ġresp": 2758,
      "une": 2759,
      "Ġhard": 2760,
      "ien": 2761,
      "-p": 2762,
      "use": 2763,
      "aim": 2764,
      "ĠUS": 2765,
      "Ġable": 2766,
      "Ġrese": 2767,
      "æĭ©": 2768,
      "ially": 2769,
      "ï¼Įæľī": 2770,
      "Ġfull": 2771,
      "Ġsing": 2772,
      "æıĲä¾Ľ": 2773,
      "(s": 2774,
      "å¥½çļĦ": 2775,
      "apt": 2776,
      "ĠĠĠĠĠĠĠĠĠĠĠĠĠĠĠĠĠĠĠĠĠĠĠ": 2777,
      "acy": 2778,
      "åĪĴ": 2779,
      "Ġstatic": 2780,
      "ived": 2781,
      "Ġlim": 2782,
      "ĠApp": 2783,
      "idth": 2784,
      "icy": 2785,
      ",\"": 2786,
      "æĭ¬": 2787,
      "urs": 2788,
      "anag": 2789,
      "aster": 2790,
      "(t": 2791,
      "Ġgame": 2792,
      "Ġask": 2793,
      "éĶĢ": 2794,
      "ä¸»è¦ģ": 2795,
      "cul": 2796,
      "ä¹Łæĺ¯": 2797,
      "aterial": 2798,
      "åĲĮæĹ¶": 2799,
      "Ġpop": 2800,
      "æ²¹": 2801,
      "inter": 2802,
      "èĳ": 2803,
      "æł¹æį®": 2804,
      "ET": 2805,
      "éĢģ": 2806,
      "å§Ķ": 2807,
      "ä¸įèĥ½": 2808,
      "ane": 2809,
      "ending": 2810,
      "ression": 2811,
      "éĿŀå¸¸": 2812,
      "éħĴ": 2813,
      "æ¼Ķ": 2814,
      "Ġlocal": 2815,
      "ently": 2816,
      "ift": 2817,
      "Ġcreate": 2818,
      "ĠTe": 2819,
      "por": 2820,
      "Ġintern": 2821,
      "ĠSu": 2822,
      "åĩºæĿ¥": 2823,
      "AD": 2824,
      "Ġleg": 2825,
      "Ġdays": 2826,
      "è´Ł": 2827,
      "Ġdem": 2828,
      "Ġwom": 2829,
      "å¸®": 2830,
      "çĨ": 2831,
      "èį¯": 2832,
      "itor": 2833,
      "å¤§å®¶": 2834,
      "Ġfalse": 2835,
      "ä»ĸçļĦ": 2836,
      "æī¿": 2837,
      "Ġuser": 2838,
      "ï¼Įåıª": 2839,
      "éĴ±": 2840,
      "++": 2841,
      "ç´§": 2842,
      "Ġlog": 2843,
      "çĽĬ": 2844,
      "èĮĥ": 2845,
      "Ġturn": 2846,
      "é£ŀ": 2847,
      "opt": 2848,
      "uf": 2849,
      "ä¸įä¼ļ": 2850,
      "Ġhum": 2851,
      "å®¤": 2852,
      "åĨ·": 2853,
      "è¿ĺæľī": 2854,
      "Ġbeh": 2855,
      "By": 2856,
      "ession": 2857,
      "Ġgl": 2858,
      "Un": 2859,
      "ĠComm": 2860,
      "åĪĿ": 2861,
      "åĨĻ": 2862,
      "ä¸ĸçķĮ": 2863,
      "Ġagainst": 2864,
      "ï¼Įæĺ¯": 2865,
      "é»Ħ": 2866,
      "Ġevent": 2867,
      "Ġbas": 2868,
      "åŁŁ": 2869,
      "ä¹ĭåĲİ": 2870,
      "æµİ": 2871,
      "ĠÂ": 2872,
      "Ġimpro": 2873,
      "Ġ`": 2874,
      "icense": 2875,
      "ird": 2876,
      "ither": 2877,
      "æĸ¹æ³ķ": 2878,
      "ister": 2879,
      "èĥ½å¤Ł": 2880,
      "Ġeng": 2881,
      "resent": 2882,
      "ots": 2883,
      "Ġident": 2884,
      "Ġlight": 2885,
      "ftware": 2886,
      "é¸": 2887,
      "éĢīæĭ©": 2888,
      "åĮħæĭ¬": 2889,
      "Ġexample": 2890,
      "```": 2891,
      "rror": 2892,
      "acter": 2893,
      "Ġ&&": 2894,
      "Ġstudy": 2895,
      "ably": 2896,
      "cription": 2897,
      "ache": 2898,
      "Ġret": 2899,
      "Ã©": 2900,
      "Ġbased": 2901,
      "Ġcap": 2902,
      "action": 2903,
      "Ġben": 2904,
      "è¾ĵ": 2905,
      "ĠBe": 2906,
      "ä¹°": 2907,
      "åĵª": 2908,
      "ina": 2909,
      "åı¤": 2910,
      "çķĻ": 2911,
      "Ġcontrol": 2912,
      "cont": 2913,
      "Ġleft": 2914,
      "ries": 2915,
      "é¡¹çĽ®": 2916,
      "Ġpossible": 2917,
      "Ġspecific": 2918,
      "lish": 2919,
      "çĸĹ": 2920,
      "Ġnet": 2921,
      "ocus": 2922,
      "äº¬": 2923,
      ".A": 2924,
      "ieve": 2925,
      "lose": 2926,
      "ideo": 2927,
      "å¯¹äºİ": 2928,
      "è¦ģæ±Ĥ": 2929,
      "ording": 2930,
      "Ġsol": 2931,
      "çłĶç©¶": 2932,
      "Ġpar": 2933,
      "ised": 2934,
      "å°½": 2935,
      "Ġtyp": 2936,
      "atures": 2937,
      "åħŃ": 2938,
      "Ġsite": 2939,
      "ches": 2940,
      "ä¸įåĲĮ": 2941,
      "Ġaccount": 2942,
      "åĪ»": 2943,
      "ï¼Įåħ¶": 2944,
      "ouble": 2945,
      "ä¼¤": 2946,
      "viron": 2947,
      "Ġresults": 2948,
      "Ġcourse": 2949,
      "åĽ½å®¶": 2950,
      "HE": 2951,
      "Ġmean": 2952,
      "æĬķèµĦ": 2953,
      "ĠLet": 2954,
      "data": 2955,
      "Ġes": 2956,
      "è¯Ħ": 2957,
      "çªģ": 2958,
      "é¢Ŀ": 2959,
      "æīĢæľī": 2960,
      "å¯Ĩ": 2961,
      "ä¼¼": 2962,
      "ĠâĢĶ": 2963,
      "}\\": 2964,
      "ĠOr": 2965,
      "äºļ": 2966,
      "br": 2967,
      "ĠNo": 2968,
      "ĠCont": 2969,
      "rict": 2970,
      "}{": 2971,
      "crib": 2972,
      "Ġservices": 2973,
      "å±ħ": 2974,
      "æĸ¹å¼ı": 2975,
      "_F": 2976,
      "Ġunt": 2977,
      "åį¡": 2978,
      "Ġcal": 2979,
      "place": 2980,
      "Ġgover": 2981,
      "åºĹ": 2982,
      "_id": 2983,
      "å®ĺ": 2984,
      "åĿĩ": 2985,
      "Ġsuccess": 2986,
      "ividual": 2987,
      "Ġjob": 2988,
      "Ġpract": 2989,
      "ãĢĢ": 2990,
      "æį¢": 2991,
      "Ġpa": 2992,
      "Ġarea": 2993,
      "void": 2994,
      "outh": 2995,
      "éĩįè¦ģ": 2996,
      "åħħ": 2997,
      "çŃĶ": 2998,
      "idd": 2999,
      "çīĮ": 3000,
      "ç½Ĺ": 3001,
      "ources": 3002,
      "åºľ": 3003,
      "æ´»åĬ¨": 3004,
      "Al": 3005,
      "æĤ¨": 3006,
      "åħ´": 3007,
      "âĢĻve": 3008,
      "aring": 3009,
      "ended": 3010,
      "å·®": 3011,
      "lobal": 3012,
      "ury": 3013,
      "ĠÎ": 3014,
      "Ġprom": 3015,
      "è¯»": 3016,
      "ta": 3017,
      "ances": 3018,
      "Ġtext": 3019,
      "ique": 3020,
      "leg": 3021,
      "åĨľ": 3022,
      "irc": 3023,
      "Ġtreat": 3024,
      "ç»Ŀ": 3025,
      "è®¾è®¡": 3026,
      "Ġinit": 3027,
      "Ġworking": 3028,
      "æİ§åĪ¶": 3029,
      "ç¤¾ä¼ļ": 3030,
      "Ġcontent": 3031,
      "Ġmus": 3032,
      "ãĢĤåľ¨": 3033,
      "UR": 3034,
      "me": 3035,
      "rad": 3036,
      "ĠString": 3037,
      "ç¾¤": 3038,
      "ober": 3039,
      "Int": 3040,
      "ples": 3041,
      "Ġreview": 3042,
      "umn": 3043,
      "å®īåħ¨": 3044,
      "åı²": 3045,
      "ured": 3046,
      "åįĥ": 3047,
      "Ġfac": 3048,
      "éĥ¨åĪĨ": 3049,
      "ĠBl": 3050,
      "uly": 3051,
      "åĽº": 3052,
      "ãĥ": 3053,
      "ç¼ĸ": 3054,
      "ification": 3055,
      "ready": 3056,
      "çĽĳ": 3057,
      "ills": 3058,
      ".l": 3059,
      "Ġbro": 3060,
      "book": 3061,
      "frac": 3062,
      "ĠMay": 3063,
      "ole": 3064,
      "code": 3065,
      "å½±åĵį": 3066,
      "çļ®": 3067,
      "En": 3068,
      "åľŁ": 3069,
      "inc": 3070,
      "Ġlearn": 3071,
      "OT": 3072,
      "Ġpot": 3073,
      "org": 3074,
      "ulation": 3075,
      "Ġrequire": 3076,
      "IM": 3077,
      "ä¸¤ä¸ª": 3078,
      "çīĪ": 3079,
      "ĠThat": 3080,
      "word": 3081,
      "ards": 3082,
      "rain": 3083,
      "æĸ¹éĿ¢": 3084,
      "Ġbreak": 3085,
      "Ġhist": 3086,
      "illion": 3087,
      "å¾ħ": 3088,
      "Set": 3089,
      "èīº": 3090,
      "ï¼Įå¥¹": 3091,
      "ocument": 3092,
      "Ind": 3093,
      "init": 3094,
      "æŃ¦": 3095,
      "Ġemploy": 3096,
      "Ġexc": 3097,
      "head": 3098,
      "Ġmaking": 3099,
      "æŃ¢": 3100,
      "Object": 3101,
      ".b": 3102,
      "Ġelect": 3103,
      "amb": 3104,
      "Ġtimes": 3105,
      "ags": 3106,
      "urity": 3107,
      "åĩı": 3108,
      "åħ«": 3109,
      "åĲ¦": 3110,
      "ä¸ĢäºĽ": 3111,
      "gin": 3112,
      "uro": 3113,
      "åĽŃ": 3114,
      "How": 3115,
      "Ġocc": 3116,
      "Ġconsider": 3117,
      "ä¹İ": 3118,
      "æĪĳçļĦ": 3119,
      "Ġwhy": 3120,
      "ored": 3121,
      "è¿Ļç§į": 3122,
      "èĭ¥": 3123,
      "Ġinclude": 3124,
      "On": 3125,
      "aps": 3126,
      "ising": 3127,
      "ume": 3128,
      "åħį": 3129,
      "Im": 3130,
      "ä¸ºäºĨ": 3131,
      "Ð°": 3132,
      "é¦Ļ": 3133,
      "æĪı": 3134,
      "åŃ¦ä¹ł": 3135,
      "idence": 3136,
      "çİ©": 3137,
      "åĳ³": 3138,
      "ING": 3139,
      "ike": 3140,
      "Ġmoney": 3141,
      "å¤«": 3142,
      "Ġsec": 3143,
      "urther": 3144,
      "Ġansw": 3145,
      "IG": 3146,
      "ene": 3147,
      "åŃ¦çĶŁ": 3148,
      "Ġthought": 3149,
      "Ġbit": 3150,
      "iver": 3151,
      "éĻį": 3152,
      "åı¦": 3153,
      "æĻº": 3154,
      "Ġsays": 3155,
      "Ġlik": 3156,
      "åİ¿": 3157,
      "Ġkind": 3158,
      "iety": 3159,
      "_st": 3160,
      "âĢĻm": 3161,
      "å®³": 3162,
      "èĻ½çĦ¶": 3163,
      "off": 3164,
      "ĠWhen": 3165,
      "æ¯į": 3166,
      "ids": 3167,
      "ä»¤": 3168,
      "æŁĲ": 3169,
      "åı«": 3170,
      "æķĻèĤ²": 3171,
      "ney": 3172,
      "Ġfour": 3173,
      "ä¸¥": 3174,
      "ips": 3175,
      "ales": 3176,
      "Ġredu": 3177,
      "Ġspecial": 3178,
      "Ġchildren": 3179,
      "'m": 3180,
      "ä½ľä¸º": 3181,
      "Ġindividual": 3182,
      "ĠWith": 3183,
      "çĶ»": 3184,
      "Ġlow": 3185,
      "Ð¾": 3186,
      "_D": 3187,
      "å¿µ": 3188,
      "Ġcode": 3189,
      "Ġflo": 3190,
      "Wh": 3191,
      "iles": 3192,
      "Ġlarge": 3193,
      "oice": 3194,
      "åıĳçİ°": 3195,
      "ands": 3196,
      "é²": 3197,
      "æĭ¿": 3198,
      "Ġfood": 3199,
      ".n": 3200,
      "nment": 3201,
      "Ġrequest": 3202,
      "Ġtot": 3203,
      "Ġaway": 3204,
      "Ġrecord": 3205,
      "æ²³": 3206,
      "AB": 3207,
      "åĨħå®¹": 3208,
      "Ġmeans": 3209,
      "çģµ": 3210,
      "agn": 3211,
      "Ġstep": 3212,
      "Ġbody": 3213,
      "Ġproblem": 3214,
      "è´Ń": 3215,
      "fer": 3216,
      "Ġprob": 3217,
      "uture": 3218,
      "åģ¥": 3219,
      "Ġthing": 3220,
      "He": 3221,
      "vironment": 3222,
      "isk": 3223,
      "aint": 3224,
      "____": 3225,
      "Ġdone": 3226,
      "åĩºçİ°": 3227,
      "Ġshort": 3228,
      "().": 3229,
      "util": 3230,
      "Ġphot": 3231,
      "ctor": 3232,
      "çĦ¶åĲİ": 3233,
      "æĿĢ": 3234,
      "pped": 3235,
      "Ġparam": 3236,
      "ĠThese": 3237,
      "å¼Ĥ": 3238,
      "(self": 3239,
      "pping": 3240,
      "éĻĪ": 3241,
      "loc": 3242,
      "Ġcreat": 3243,
      "Ġquestion": 3244,
      "igned": 3245,
      "irt": 3246,
      "ĠChrist": 3247,
      "Ġstudents": 3248,
      "è´¢": 3249,
      "Ġcalled": 3250,
      "LO": 3251,
      "Ġhaving": 3252,
      "orth": 3253,
      "ysis": 3254,
      "ç»ıæµİ": 3255,
      "Ġmeas": 3256,
      "äºī": 3257,
      "Ġalong": 3258,
      "ĠRep": 3259,
      "ĠHowever": 3260,
      "Ġpast": 3261,
      "Ġpath": 3262,
      "åº·": 3263,
      "åı¶": 3264,
      "Ġaddress": 3265,
      "ajor": 3266,
      "Ġcertain": 3267,
      "ĠSystem": 3268,
      "plic": 3269,
      "çł´": 3270,
      "ected": 3271,
      "erc": 3272,
      "'re": 3273,
      "include": 3274,
      "ä¸Ģå®ļ": 3275,
      "å¤ĦçĲĨ": 3276,
      "ffic": 3277,
      "Ġrange": 3278,
      "Ġmeet": 3279,
      "iod": 3280,
      "ä½Ļ": 3281,
      "Ġlooking": 3282,
      "ĠEn": 3283,
      "Ġroom": 3284,
      "Ġhig": 3285,
      "ĠMar": 3286,
      "è¿Ļä¹Ī": 3287,
      "ï¼ĮæĪĳä»¬": 3288,
      "æĪĸèĢħ": 3289,
      "iter": 3290,
      "çĭ¬": 3291,
      "ley": 3292,
      "SS": 3293,
      "ç¦ı": 3294,
      "è¿Ļä¸Ģ": 3295,
      "Ġorig": 3296,
      "æ¿": 3297,
      "icro": 3298,
      "Ġerror": 3299,
      "yl": 3300,
      "èĴ": 3301,
      "âĢĵ": 3302,
      "Ġmove": 3303,
      "AG": 3304,
      "........": 3305,
      "(m": 3306,
      "éĵ¶": 3307,
      "OM": 3308,
      "èŀį": 3309,
      "Ġalready": 3310,
      "Error": 3311,
      "åħļ": 3312,
      "âĢĻll": 3313,
      "å¸Į": 3314,
      "Ġsever": 3315,
      "Re": 3316,
      "Ġtell": 3317,
      "ä»ĭ": 3318,
      "But": 3319,
      "Ġcommon": 3320,
      "æł¸": 3321,
      "(p": 3322,
      "åįı": 3323,
      "ables": 3324,
      "ights": 3325,
      "ĠCan": 3326,
      "Ġoften": 3327,
      "å¥ĩ": 3328,
      "éĨ": 3329,
      "Ġabove": 3330,
      "Se": 3331,
      "Ġresearch": 3332,
      "Ġla": 3333,
      "Ġuntil": 3334,
      "ï¼Įåı¯": 3335,
      "And": 3336,
      "ä¸ĥ": 3337,
      "å¿Ĺ": 3338,
      "ĠEng": 3339,
      "[i": 3340,
      "ground": 3341,
      "Ġtoday": 3342,
      "conom": 3343,
      "æĻ®": 3344,
      "è®²": 3345,
      "umber": 3346,
      "æĹı": 3347,
      "äººåĳĺ": 3348,
      "mb": 3349,
      "éĺ¿": 3350,
      "ched": 3351,
      "Ġdeterm": 3352,
      "ai": 3353,
      "Ġann": 3354,
      "Ġsaf": 3355,
      "Key": 3356,
      "arning": 3357,
      "èĭı": 3358,
      "Ġtoget": 3359,
      "Ġprint": 3360,
      "Ġtogether": 3361,
      "aff": 3362,
      "åĨ²": 3363,
      "Ġ/*": 3364,
      "æľīéĻĲ": 3365,
      "çĵ": 3366,
      "ĠLe": 3367,
      "ĠAt": 3368,
      "Ġsuper": 3369,
      "èĽ": 3370,
      "Ġparticular": 3371,
      "æĻļ": 3372,
      "US": 3373,
      "earch": 3374,
      "cer": 3375,
      "Ġfore": 3376,
      "Ġvisit": 3377,
      "With": 3378,
      "Ġpersonal": 3379,
      "ayer": 3380,
      "de": 3381,
      "ends": 3382,
      "Pl": 3383,
      "print": 3384,
      "è¯¾": 3385,
      "Ġpage": 3386,
      "è½®": 3387,
      "èĥ½åĬĽ": 3388,
      "çĽ¸åħ³": 3389,
      "Ġleast": 3390,
      "çļĦè¯Ŀ": 3391,
      "Ġside": 3392,
      "Ġneeds": 3393,
      "åĲ¸": 3394,
      "aces": 3395,
      "ĠPr": 3396,
      "Ġbuy": 3397,
      ".j": 3398,
      "ä¸¾": 3399,
      "å¾ĭ": 3400,
      "Ġreason": 3401,
      "åºĶè¯¥": 3402,
      "äºĭæĥħ": 3403,
      "ç«Ł": 3404,
      "ribute": 3405,
      "è§īå¾Ĺ": 3406,
      "PE": 3407,
      "åı¥": 3408,
      "çľĭåĪ°": 3409,
      "alf": 3410,
      "ĠAss": 3411,
      "åıĳçĶŁ": 3412,
      "ĠGod": 3413,
      "Ġid": 3414,
      "type": 3415,
      "rec": 3416,
      "lished": 3417,
      "Ġmaterial": 3418,
      "Ġant": 3419,
      "Ðµ": 3420,
      "Ġpack": 3421,
      "åºı": 3422,
      "åħµ": 3423,
      "ides": 3424,
      "Ġwhether": 3425,
      "side": 3426,
      "åĲ«": 3427,
      "ĠMy": 3428,
      "æ¦": 3429,
      "æĭħ": 3430,
      "æĿ¥çļĦ": 3431,
      "åį«": 3432,
      "File": 3433,
      "è¡£": 3434,
      "Ġhold": 3435,
      "çŃĸ": 3436,
      "ari": 3437,
      "lu": 3438,
      "osed": 3439,
      "ummary": 3440,
      "çŀ": 3441,
      "å¦Ī": 3442,
      "åĿĲ": 3443,
      "å¯Į": 3444,
      "col": 3445,
      "Ġsocial": 3446,
      "ä»¥åıĬ": 3447,
      "sel": 3448,
      "enn": 3449,
      "Ġspace": 3450,
      "æľ¨": 3451,
      "lev": 3452,
      "Ġindust": 3453,
      "çĶŁäº§": 3454,
      "Ġbenef": 3455,
      "Ġproducts": 3456,
      "joy": 3457,
      "ç»§": 3458,
      "Ġport": 3459,
      "ä¸Ģæł·": 3460,
      "ibility": 3461,
      "Ġdri": 3462,
      "è¿ĻéĩĮ": 3463,
      "æ¤": 3464,
      "gs": 3465,
      "å·´": 3466,
      "Ġsignific": 3467,
      "åģľ": 3468,
      "ä¸ªäºº": 3469,
      "ä¸įè¿ĩ": 3470,
      "æĵį": 3471,
      "ä¸ĵä¸ļ": 3472,
      "ĠCent": 3473,
      "å½ķ": 3474,
      "unc": 3475,
      "Ġfocus": 3476,
      "ç»ĩ": 3477,
      "Ġvari": 3478,
      "åĶ®": 3479,
      "Ġseveral": 3480,
      "ohn": 3481,
      "ormal": 3482,
      "Text": 3483,
      "Ġmen": 3484,
      "url": 3485,
      "ino": 3486,
      ".D": 3487,
      "ĠDo": 3488,
      "ĠMed": 3489,
      "Ġenough": 3490,
      "lean": 3491,
      "Exception": 3492,
      "åĢĴ": 3493,
      "æ¿Ģ": 3494,
      "Ġenc": 3495,
      "order": 3496,
      "çĽĺ": 3497,
      "verage": 3498,
      "Ġfar": 3499,
      "è®¾å¤ĩ": 3500,
      "Ġhouse": 3501,
      "uration": 3502,
      "æĢķ": 3503,
      "Ġmot": 3504,
      ".set": 3505,
      "Ġtrad": 3506,
      "Ġothers": 3507,
      "éĿĻ": 3508,
      "arr": 3509,
      "Ġdr": 3510,
      "æľĿ": 3511,
      "oogle": 3512,
      ")$": 3513,
      "ental": 3514,
      "anks": 3515,
      ".M": 3516,
      "Is": 3517,
      "Ġtarget": 3518,
      "Ġmax": 3519,
      "wh": 3520,
      "Ġeither": 3521,
      "_B": 3522,
      "çĽ´æİ¥": 3523,
      "Ġmakes": 3524,
      "Ġrequired": 3525,
      "æĽ¾": 3526,
      "osp": 3527,
      "éº": 3528,
      "ä½łçļĦ": 3529,
      "aus": 3530,
      "ä¹Ŀ": 3531,
      "ç£": 3532,
      "ograph": 3533,
      "çĪ¶": 3534,
      "):": 3535,
      "resh": 3536,
      "ibr": 3537,
      "æ¯Ķè¾ĥ": 3538,
      "ĠPol": 3539,
      "åº§": 3540,
      "çłģ": 3541,
      "æŀĲ": 3542,
      "Ġ?": 3543,
      "Let": 3544,
      "orld": 3545,
      "Ġpub": 3546,
      "Ġinvol": 3547,
      "ä»ĺ": 3548,
      "é¡»": 3549,
      "rc": 3550,
      "rel": 3551,
      "mm": 3552,
      "(\\": 3553,
      "Ġsingle": 3554,
      "Ġactually": 3555,
      "ĠCo": 3556,
      "lected": 3557,
      "Ġversion": 3558,
      "Ġcomb": 3559,
      "Ġpo": 3560,
      "è½½": 3561,
      "Ġdevelopment": 3562,
      "room": 3563,
      "utes": 3564,
      "(d": 3565,
      "pper": 3566,
      "å®ŀæĸ½": 3567,
      "ilar": 3568,
      "èĥĮ": 3569,
      "UN": 3570,
      "é¼": 3571,
      "struct": 3572,
      "Ġauthor": 3573,
      "Ġvol": 3574,
      "empt": 3575,
      "äºĴ": 3576,
      "ä¸Ŀ": 3577,
      "å¾ģ": 3578,
      "Ġess": 3579,
      "ovember": 3580,
      "enc": 3581,
      "ĠComp": 3582,
      "><": 3583,
      "Ġrelations": 3584,
      "Ġ<<": 3585,
      "Ġstory": 3586,
      "ĠUniversity": 3587,
      "Ġbecome": 3588,
      "æī§": 3589,
      "ENT": 3590,
      "èĨ": 3591,
      "è¿ĩç¨ĭ": 3592,
      "ä¹ĭéĹ´": 3593,
      "ä¹ħ": 3594,
      "Ġworks": 3595,
      "perty": 3596,
      "åŃ£": 3597,
      "ï¼Įä½Ĩæĺ¯": 3598,
      "egin": 3599,
      "rect": 3600,
      "ĠInt": 3601,
      "ç§»": 3602,
      "._": 3603,
      "Ġquality": 3604,
      "éĵģ": 3605,
      "Ġenerg": 3606,
      "IP": 3607,
      ".âĢĿ": 3608,
      "çİ¯å¢ĥ": 3609,
      "æ³¢": 3610,
      "éĤ£ä¹Ī": 3611,
      "çıŃ": 3612,
      "Ġinteg": 3613,
      "Ġdue": 3614,
      "ĠIN": 3615,
      "Ġoffer": 3616,
      "å¤ľ": 3617,
      "åĵ¥": 3618,
      "Ġdidn": 3619,
      "Ġcommunity": 3620,
      "Ġfail": 3621,
      "Ġeasy": 3622,
      "è¿ŀæİ¥": 3623,
      "ä½Ĩæĺ¯": 3624,
      "åĿļ": 3625,
      "çľĭçĿĢ": 3626,
      "Ġ:=": 3627,
      "rior": 3628,
      "fect": 3629,
      "Ġconnect": 3630,
      "æĪĲä¸º": 3631,
      "_N": 3632,
      "imate": 3633,
      "left": 3634,
      "--------------------------------": 3635,
      "å¤§åŃ¦": 3636,
      "æĸĩåĮĸ": 3637,
      "è´§": 3638,
      "Add": 3639,
      "Ġbring": 3640,
      "span": 3641,
      "Ġ...": 3642,
      "åħ·æľī": 3643,
      "Ġtalk": 3644,
      "Ġclaim": 3645,
      "Test": 3646,
      "wards": 3647,
      "ĠChe": 3648,
      "Ġmajor": 3649,
      "Ġcontain": 3650,
      "æ½": 3651,
      "(-": 3652,
      "Ġtool": 3653,
      "Ġwin": 3654,
      "ĠQu": 3655,
      "IL": 3656,
      "[]": 3657,
      "oose": 3658,
      "çŁŃ": 3659,
      "æĦ¿": 3660,
      "ä¹Łä¸į": 3661,
      "Ġair": 3662,
      "eed": 3663,
      "è¡¥": 3664,
      "Ġblock": 3665,
      "åĸĦ": 3666,
      "\\n": 3667,
      "Ġobs": 3668,
      "èĦĳ": 3669,
      "Ġcourt": 3670,
      "Ġ</": 3671,
      "æĺ¥": 3672,
      "Ġdoesn": 3673,
      "../": 3674,
      "#include": 3675,
      "unity": 3676,
      "bb": 3677,
      "},": 3678,
      "CH": 3679,
      "mit": 3680,
      "_in": 3681,
      "ones": 3682,
      "å¥Ĺ": 3683,
      "now": 3684,
      "Ġmar": 3685,
      "Ġdoing": 3686,
      "æ¥¼": 3687,
      "Ġever": 3688,
      "Ġmom": 3689,
      "ĠYour": 3690,
      "New": 3691,
      "Ġdistribut": 3692,
      "Ġstrong": 3693,
      "çļĩ": 3694,
      "yt": 3695,
      "Ġposition": 3696,
      "ension": 3697,
      "(x": 3698,
      "Ġamount": 3699,
      "ĠFr": 3700,
      "-l": 3701,
      "åħ°": 3702,
      "ä¸Ģèµ·": 3703,
      "ĠCal": 3704,
      "å»ºè®¾": 3705,
      "iple": 3706,
      "å·¦": 3707,
      "èŃ": 3708,
      "Ġtre": 3709,
      "Ġmonths": 3710,
      "file": 3711,
      "uation": 3712,
      "ç©¿": 3713,
      "Ġmind": 3714,
      "div": 3715,
      "ple": 3716,
      "Ġacross": 3717,
      "clus": 3718,
      "ules": 3719,
      "Time": 3720,
      "td": 3721,
      "OL": 3722,
      "Ġemail": 3723,
      "çĶ¨æĪ·": 3724,
      "Ġaction": 3725,
      "ĠLicense": 3726,
      "There": 3727,
      "æĥĬ": 3728,
      "Ġhtt": 3729,
      "Ġ||": 3730,
      "ties": 3731,
      "ĠState": 3732,
      "(n": 3733,
      "é½": 3734,
      "åĸľæ¬¢": 3735,
      "ĠGet": 3736,
      "è°ģ": 3737,
      "Ġhuman": 3738,
      "ĠĠĠĠĠĠĠĠĠĠĠĠĠ": 3739,
      "Ġthough": 3740,
      "Ġsignificant": 3741,
      "Ġtable": 3742,
      "Ġgetting": 3743,
      "æħ¢": 3744,
      "Ġvalues": 3745,
      "æľĭ": 3746,
      "Ġdiscuss": 3747,
      "most": 3748,
      "åį°": 3749,
      "ĠInst": 3750,
      "Ġrepresent": 3751,
      "å¦Ĥä½ķ": 3752,
      "Ġoptions": 3753,
      "State": 3754,
      "èĹ": 3755,
      "åī¯": 3756,
      "Ġsource": 3757,
      "è®Ń": 3758,
      "Info": 3759,
      "å§Ĳ": 3760,
      "Ġassoci": 3761,
      "âĢĿï¼Į": 3762,
      "æĭĽ": 3763,
      "ä¸Ńå¿ĥ": 3764,
      "ç»ĥ": 3765,
      "Ġanswer": 3766,
      "oin": 3767,
      "åĽłæŃ¤": 3768,
      "çĶļ": 3769,
      "Ġfuture": 3770,
      "lements": 3771,
      "ators": 3772,
      "Ġcomplet": 3773,
      "fort": 3774,
      "èĩªçĦ¶": 3775,
      "anu": 3776,
      "px": 3777,
      "èī¯": 3778,
      "Ġonce": 3779,
      "Ġmembers": 3780,
      "Ġbelow": 3781,
      ".P": 3782,
      "(c": 3783,
      "åĪĺ": 3784,
      "åħ³ç³»": 3785,
      "é¡¾": 3786,
      "iction": 3787,
      "Ġlater": 3788,
      "Qu": 3789,
      "æĢ¥": 3790,
      "å®ŀçİ°": 3791,
      "eta": 3792,
      "Ġrespect": 3793,
      "index": 3794,
      "raft": 3795,
      "Ġdeal": 3796,
      "Ġcolor": 3797,
      "Ġcookies": 3798,
      "avor": 3799,
      "Ġeduc": 3800,
      "ctober": 3801,
      "ilities": 3802,
      "ĠAN": 3803,
      "Ġexist": 3804,
      "Ġenergy": 3805,
      "ĠCar": 3806,
      "ogn": 3807,
      "All": 3808,
      "Ġproperty": 3809,
      "Ġsugg": 3810,
      "App": 3811,
      "æľīäºĽ": 3812,
      "Ġcharacter": 3813,
      "ecut": 3814,
      "èŃ¦": 3815,
      "å®¡": 3816,
      "Ġshare": 3817,
      "Ġsuggest": 3818,
      "åı³": 3819,
      "Ġsent": 3820,
      "Ġcountry": 3821,
      "Ġcou": 3822,
      "De": 3823,
      "Ġabs": 3824,
      "Ġknown": 3825,
      "imal": 3826,
      "Ġenjoy": 3827,
      "ç¥¨": 3828,
      "Ġphys": 3829,
      "ender": 3830,
      "çºª": 3831,
      "Ġparent": 3832,
      "Ġbegin": 3833,
      "ĠGu": 3834,
      "ï¼ĮæīĢä»¥": 3835,
      "åľ°æĸ¹": 3836,
      "irl": 3837,
      "ï¼Įä»İ": 3838,
      "Ġchall": 3839,
      "user": 3840,
      "Ġwomen": 3841,
      "å²ģ": 3842,
      "roid": 3843,
      "ux": 3844,
      "Ġlive": 3845,
      "OP": 3846,
      "ication": 3847,
      "æľĢåĲİ": 3848,
      "aken": 3849,
      "irm": 3850,
      "èĵ": 3851,
      "Ġdig": 3852,
      "ä¾§": 3853,
      "////////": 3854,
      "cle": 3855,
      "pril": 3856,
      "ï¼Įå¯¹": 3857,
      "ï¼Įè®©": 3858,
      "(b": 3859,
      "Ġnecess": 3860,
      "Ġarray": 3861,
      "Ġred": 3862,
      "åī§": 3863,
      "Ġoffic": 3864,
      "ruction": 3865,
      "Ġens": 3866,
      "Requ": 3867,
      "'ve": 3868,
      "Ġactiv": 3869,
      "Ġ__": 3870,
      "Ġhours": 3871,
      "Ġcontact": 3872,
      "æľĭåıĭ": 3873,
      "Ġcomes": 3874,
      "Ð¸": 3875,
      "Ġsoftware": 3876,
      "ĠNot": 3877,
      "åįļ": 3878,
      "äººæ°ĳ": 3879,
      "Ġpotential": 3880,
      "éķĩ": 3881,
      "Ġperiod": 3882,
      "Or": 3883,
      "ä¸Ģä¸ĭ": 3884,
      "oad": 3885,
      "Ġtotal": 3886,
      "Ġcur": 3887,
      "ilt": 3888,
      "ãĢĲ": 3889,
      "è¯ī": 3890,
      "ULL": 3891,
      "æĿ¾": 3892,
      "ĠBy": 3893,
      "ptember": 3894,
      "çĳ": 3895,
      "cember": 3896,
      "orts": 3897,
      "åŃĺåľ¨": 3898,
      "å¤ı": 3899,
      "è°¢": 3900,
      "Ġquick": 3901,
      "Ġpress": 3902,
      "ãĢĳ": 3903,
      "][": 3904,
      "Ġopport": 3905,
      "ison": 3906,
      "Ġcomput": 3907,
      "ç»ĵæŀĦ": 3908,
      "æŀ¶": 3909,
      "Ġstre": 3910,
      "Read": 3911,
      "ĠOne": 3912,
      "éĴŁ": 3913,
      "ä¸´": 3914,
      "inary": 3915,
      "Ġsearch": 3916,
      "Ġoption": 3917,
      "atform": 3918,
      "ï¼Įè¿ĺ": 3919,
      "æĦŁè§ī": 3920,
      "ä¸ĢèĪ¬": 3921,
      "éľ²": 3922,
      "rt": 3923,
      "ĠDes": 3924,
      "Ġblog": 3925,
      "ĠUnited": 3926,
      "Ġpatients": 3927,
      "epend": 3928,
      "æ±ī": 3929,
      "Ġexam": 3930,
      "çķ¥": 3931,
      "imum": 3932,
      "itted": 3933,
      "Ġconc": 3934,
      "Ġterms": 3935,
      "ä¸ľè¥¿": 3936,
      "Ġop": 3937,
      "asing": 3938,
      "rix": 3939,
      "rm": 3940,
      "-g": 3941,
      "((": 3942,
      "Ġgen": 3943,
      "Ġland": 3944,
      "Ġnight": 3945,
      "pace": 3946,
      "EM": 3947,
      "Ġimprove": 3948,
      "Ġassert": 3949,
      "Ġyet": 3950,
      "åĵĪ": 3951,
      "æłĳ": 3952,
      "ites": 3953,
      "ugust": 3954,
      "Ġprevious": 3955,
      "çº³": 3956,
      "ĠAdd": 3957,
      "é¢ĳ": 3958,
      "Ph": 3959,
      "ili": 3960,
      "oll": 3961,
      "Ġey": 3962,
      "ÑĤ": 3963,
      "æ¶²": 3964,
      "Ġprice": 3965,
      "Ġvideo": 3966,
      "Ġinput": 3967,
      "Ġfurther": 3968,
      "ç»ľ": 3969,
      "åŁ¹": 3970,
      "rs": 3971,
      "Ġimage": 3972,
      "çĩ": 3973,
      "Ġobtain": 3974,
      "æįŁ": 3975,
      "Ġgovernment": 3976,
      "ãĢĤæĪĳ": 3977,
      "-in": 3978,
      "eters": 3979,
      "ĠÃ": 3980,
      "my": 3981,
      "Ġrespons": 3982,
      "Ġfeatures": 3983,
      "ops": 3984,
      "Ġlink": 3985,
      "time": 3986,
      "å·¥ç¨ĭ": 3987,
      "Ġhappen": 3988,
      "è½¯": 3989,
      "æ¯ķ": 3990,
      "æ¥ļ": 3991,
      "rodu": 3992,
      "Ġcopy": 3993,
      "ires": 3994,
      "èĦļ": 3995,
      "Ġdescrib": 3996,
      "ners": 3997,
      "Ġcrit": 3998,
      "æĶ»": 3999,
      "ä¸Ģç§į": 4000,
      "artment": 4001,
      "error": 4002,
      "Ġrelationship": 4003,
      "':": 4004,
      "Ġenvironment": 4005,
      "æľīéĻĲåħ¬åı¸": 4006,
      "ung": 4007,
      "Ġweb": 4008,
      "ĠDis": 4009,
      "Ġthrow": 4010,
      "atural": 4011,
      "anuary": 4012,
      "åıªæĺ¯": 4013,
      "Ġseason": 4014,
      "ĠĠĠĠĠĠĠĠĠĠ": 4015,
      "åģĩ": 4016,
      "ç»Ħç»ĩ": 4017,
      "å¯Ł": 4018,
      "ounds": 4019,
      "Ġstrateg": 4020,
      "!!": 4021,
      "Ġdefault": 4022,
      "rack": 4023,
      "ledge": 4024,
      "ued": 4025,
      "Ġprovided": 4026,
      "éģĩ": 4027,
      "though": 4028,
      "-w": 4029,
      "é¡º": 4030,
      "Ġresponse": 4031,
      "ç´¢": 4032,
      "nection": 4033,
      "odes": 4034,
      "ĠGener": 4035,
      "Ġyoung": 4036,
      "html": 4037,
      "ãĢĤè¿Ļ": 4038,
      "çĶ³": 4039,
      "ĠUs": 4040,
      "æ¸¸æĪı": 4041,
      "Ġcred": 4042,
      "æıĲé«ĺ": 4043,
      "èĤī": 4044,
      "éĿł": 4045,
      ".w": 4046,
      "äº®": 4047,
      "çĶ¨äºİ": 4048,
      "Ġbeaut": 4049,
      "è¯´éģĵ": 4050,
      "Ġcult": 4051,
      "ç¯": 4052,
      "Ġsym": 4053,
      "Ġcame": 4054,
      "atter": 4055,
      "Not": 4056,
      "Ġstarted": 4057,
      "mod": 4058,
      "Item": 4059,
      "ero": 4060,
      "äº«": 4061,
      "æĤ£": 4062,
      "abor": 4063,
      "cing": 4064,
      "urance": 4065,
      "ï¼ĮæīĢè¿°": 4066,
      "æŃĮ": 4067,
      "_g": 4068,
      "ourn": 4069,
      "gress": 4070,
      "OS": 4071,
      "ancial": 4072,
      "Ġmessage": 4073,
      "Ġbase": 4074,
      "comp": 4075,
      "tings": 4076,
      "å¸Ŀ": 4077,
      "ä¸ĢçĽ´": 4078,
      "äºĨè§£": 4079,
      "_h": 4080,
      "ç¨³": 4081,
      "Ġamong": 4082,
      "anies": 4083,
      "åįł": 4084,
      "èĭ¦": 4085,
      "So": 4086,
      "ä»»ä½ķ": 4087,
      "ze": 4088,
      "Ġseen": 4089,
      "çľŁçļĦ": 4090,
      "å³": 4091,
      "åŃ¦æł¡": 4092,
      "èĸ": 4093,
      "è¯į": 4094,
      "åĩºäºĨ": 4095,
      "éĽ¨": 4096,
      "oud": 4097,
      "ä½łä»¬": 4098,
      "Ġgeneral": 4099,
      "ĠMore": 4100,
      "Ġrecomm": 4101,
      "Ġvarious": 4102,
      "unch": 4103,
      "-h": 4104,
      "Ġrate": 4105,
      "çĽ®åīį": 4106,
      "Ġface": 4107,
      "ector": 4108,
      "ony": 4109,
      "æķ£": 4110,
      "ĠIntern": 4111,
      "Ġsubject": 4112,
      "Ġnews": 4113,
      "plate": 4114,
      "Ġcamp": 4115,
      "è®¤ä¸º": 4116,
      "Ġcut": 4117,
      "Ġeconom": 4118,
      "itut": 4119,
      "Ġinstall": 4120,
      "æĹħ": 4121,
      "Ad": 4122,
      "Ġconfig": 4123,
      "$$": 4124,
      "Ġago": 4125,
      "æĶ¿åºľ": 4126,
      "No": 4127,
      "Ġpoints": 4128,
      "Ġsimilar": 4129,
      "Ġtax": 4130,
      "å¸ĮæľĽ": 4131,
      "Ġsw": 4132,
      "mat": 4133,
      "ĠAmerican": 4134,
      "essional": 4135,
      "EX": 4136,
      "ĠJohn": 4137,
      "é¡¶": 4138,
      "Ġclean": 4139,
      "Ġheart": 4140,
      "indows": 4141,
      "Su": 4142,
      "ä»Ĭå¤©": 4143,
      "item": 4144,
      "âĢ¢": 4145,
      "ians": 4146,
      "Ġsimple": 4147,
      "ĠMe": 4148,
      "è¡Įä¸ļ": 4149,
      "_name": 4150,
      "Ġthird": 4151,
      "Ġissues": 4152,
      "Ġearly": 4153,
      "Ġhot": 4154,
      "When": 4155,
      "ç¾İåĽ½": 4156,
      "Path": 4157,
      "uments": 4158,
      "Ġhope": 4159,
      "æī¹": 4160,
      "Ġindic": 4161,
      "anager": 4162,
      "Ġpred": 4163,
      "'ll": 4164,
      ",æĪĳ": 4165,
      "Ġpick": 4166,
      "éĺµ": 4167,
      "oken": 4168,
      "_w": 4169,
      "å®Ī": 4170,
      "Ġlarg": 4171,
      ".F": 4172,
      "éĢĢ": 4173,
      "éĽª": 4174,
      "roups": 4175,
      "ç¬¬ä¸ī": 4176,
      "Ġrad": 4177,
      "Ġperformance": 4178,
      "hers": 4179,
      "åĬŁèĥ½": 4180,
      "Ġcompet": 4181,
      "Ġpurch": 4182,
      "Post": 4183,
      "äº¿": 4184,
      "Ġwhole": 4185,
      "Ġmedia": 4186,
      "config": 4187,
      "æĿĲæĸĻ": 4188,
      "æĿ¨": 4189,
      "Ġanalysis": 4190,
      "Ġmusic": 4191,
      "box": 4192,
      "çĸĳ": 4193,
      "='": 4194,
      "Node": 4195,
      "åŁºæľ¬": 4196,
      "å¥ĸ": 4197,
      "éĻĦ": 4198,
      "umb": 4199,
      "Des": 4200,
      "åĩĢ": 4201,
      "çİī": 4202,
      "æľºæŀĦ": 4203,
      ".org": 4204,
      "Ġapplication": 4205,
      "Ġremain": 4206,
      "Ġcomment": 4207,
      "å°Ħ": 4208,
      "è®¾ç½®": 4209,
      "çĶ±äºİ": 4210,
      "æĸĹ": 4211,
      "Ġneg": 4212,
      "ä¸ĭæĿ¥": 4213,
      "æ³¨æĦı": 4214,
      "icult": 4215,
      "Ġwriting": 4216,
      "Ġclear": 4217,
      "itional": 4218,
      "Index": 4219,
      "çĹĽ": 4220,
      "ç²ī": 4221,
      "èıľ": 4222,
      "Ġwrite": 4223,
      "su": 4224,
      "Ġperfect": 4225,
      "http": 4226,
      "Ġtook": 4227,
      "annel": 4228,
      "================": 4229,
      "Ġ(!": 4230,
      "Ġcity": 4231,
      "inks": 4232,
      "CC": 4233,
      "########": 4234,
      "ster": 4235,
      "Ġsat": 4236,
      "Ġwon": 4237,
      "å°ģ": 4238,
      "è¡¨ç¤º": 4239,
      "ĠReg": 4240,
      "Size": 4241,
      "è´µ": 4242,
      "></": 4243,
      "è¿½": 4244,
      "æ²ī": 4245,
      "Ġeverything": 4246,
      "èįī": 4247,
      "www": 4248,
      "Event": 4249,
      "ises": 4250,
      "Ġdeb": 4251,
      "(),": 4252,
      "ç»ĵæŀľ": 4253,
      "ĠFl": 4254,
      "illed": 4255,
      "fully": 4256,
      "Ġear": 4257,
      "ä¸½": 4258,
      "å®ĮæĪĲ": 4259,
      "Ġ\"\"": 4260,
      "ride": 4261,
      "æ¹ĸ": 4262,
      "æīĺ": 4263,
      "åĪĨæŀĲ": 4264,
      "ä¸įè¦ģ": 4265,
      "ä½ľçĶ¨": 4266,
      "Ġ->": 4267,
      "stance": 4268,
      "æ´Ĺ": 4269,
      "Ġwent": 4270,
      "ç¤¼": 4271,
      "ĠIm": 4272,
      "Param": 4273,
      "ĠAg": 4274,
      "æĭį": 4275,
      "Ġhigher": 4276,
      "Ġtrack": 4277,
      "éħ¸": 4278,
      "do": 4279,
      "lt": 4280,
      "å¼Ł": 4281,
      "using": 4282,
      "eral": 4283,
      "æĿ¥è¯´": 4284,
      "iting": 4285,
      "Ġstay": 4286,
      "è´¨éĩı": 4287,
      "pecially": 4288,
      "OD": 4289,
      "igure": 4290,
      "Config": 4291,
      "nces": 4292,
      "ival": 4293,
      "Ġquestions": 4294,
      "sub": 4295,
      "Ġsomeone": 4296,
      "Ġseries": 4297,
      "ixed": 4298,
      "istic": 4299,
      "ĠOur": 4300,
      "èİ·å¾Ĺ": 4301,
      "Ġhost": 4302,
      "come": 4303,
      "rew": 4304,
      "å¨ģ": 4305,
      "ĠPart": 4306,
      "Ġrole": 4307,
      "ĠĠĠĠĠĠĠĠĠĠĠĠ": 4308,
      "Ġchanges": 4309,
      "éĹ»": 4310,
      "èµĦäº§": 4311,
      "åįķä½į": 4312,
      "è¸": 4313,
      "å®ģ": 4314,
      "Ġmillion": 4315,
      "ding": 4316,
      "oved": 4317,
      "çĸ«": 4318,
      "erved": 4319,
      "ude": 4320,
      "urope": 4321,
      "yd": 4322,
      "Ġdom": 4323,
      "éĽ·": 4324,
      "èģļ": 4325,
      "çļĦå¤§": 4326,
      "Ġissue": 4327,
      "æ¢¦": 4328,
      "Ġindustry": 4329,
      "æĴŃ": 4330,
      "Ġcannot": 4331,
      "from": 4332,
      "åª": 4333,
      "åŁİå¸Ĥ": 4334,
      "pose": 4335,
      "Ġidea": 4336,
      "Ġneeded": 4337,
      "ĠAb": 4338,
      "Ġstore": 4339,
      "Ġcontext": 4340,
      "Context": 4341,
      "Ġrisk": 4342,
      "éĻĨ": 4343,
      "è·ĳ": 4344,
      "Ġcard": 4345,
      "Ġbelieve": 4346,
      "Ġdate": 4347,
      "Equ": 4348,
      "Ġmor": 4349,
      "era": 4350,
      "andom": 4351,
      "Ġhistory": 4352,
      "test": 4353,
      "ä¸Ģæ¬¡": 4354,
      "Ġparticip": 4355,
      "Ġloss": 4356,
      "Ġhowever": 4357,
      ".add": 4358,
      "Ġage": 4359,
      "Ġprovides": 4360,
      "ĠPost": 4361,
      "Ġminutes": 4362,
      "æ¯Ĵ": 4363,
      "Ġmanagement": 4364,
      "Ġvia": 4365,
      "ebru": 4366,
      "Up": 4367,
      "å¿ħé¡»": 4368,
      "ĠMin": 4369,
      "iful": 4370,
      "éĴ¢": 4371,
      "Ġwalk": 4372,
      "éĤ£ä¸ª": 4373,
      "Ġgames": 4374,
      "åĩĨå¤ĩ": 4375,
      "Ġtaking": 4376,
      "IR": 4377,
      "Ġclose": 4378,
      "å®£": 4379,
      "æĬĹ": 4380,
      "Ġtreatment": 4381,
      "Ġanything": 4382,
      "çĶ²": 4383,
      "ĉĉĉĉĉ": 4384,
      "elling": 4385,
      "èĥľ": 4386,
      "obile": 4387,
      "TR": 4388,
      "ync": 4389,
      "lege": 4390,
      "ebruary": 4391,
      "ï¼Įä¸º": 4392,
      "\\\\": 4393,
      "ç½ĳç»ľ": 4394,
      "Log": 4395,
      "ĠStates": 4396,
      "pha": 4397,
      "orage": 4398,
      "Ġconditions": 4399,
      "Ġtraining": 4400,
      "æ¯Ľ": 4401,
      "Ġimpact": 4402,
      "Ġoutput": 4403,
      "Ġstd": 4404,
      "Ġsum": 4405,
      "hing": 4406,
      "è¿Ľåħ¥": 4407,
      "icles": 4408,
      "da": 4409,
      "list": 4410,
      "rep": 4411,
      "-st": 4412,
      "èĮ¶": 4413,
      "')": 4414,
      "Ġdeg": 4415,
      "ĠRev": 4416,
      ".st": 4417,
      "lick": 4418,
      "ĠEd": 4419,
      "Ġmach": 4420,
      "çĶļèĩ³": 4421,
      "urch": 4422,
      "ä¹ĭåīį": 4423,
      "ged": 4424,
      "ĠAct": 4425,
      "èº«ä½ĵ": 4426,
      "ä¹¡": 4427,
      "Ġfive": 4428,
      "ï¼Įå°Ĩ": 4429,
      "æĵįä½ľ": 4430,
      "Ġindex": 4431,
      "At": 4432,
      "å®«": 4433,
      "Ġflow": 4434,
      "ĠSee": 4435,
      "æİī": 4436,
      "Ġarticle": 4437,
      "uffer": 4438,
      "](": 4439,
      "Ġmiss": 4440,
      "åĽ½éĻħ": 4441,
      "Ġbi": 4442,
      "æĽ²": 4443,
      "ological": 4444,
      "æĭ¥": 4445,
      ".R": 4446,
      "Ġdat": 4447,
      "Ġnetwork": 4448,
      "Ġdouble": 4449,
      "Ġupon": 4450,
      "ĠGr": 4451,
      "Ġfall": 4452,
      "ried": 4453,
      "hib": 4454,
      "Ġaccept": 4455,
      "Sc": 4456,
      "âĢĿçļĦ": 4457,
      "Ġcontinue": 4458,
      "astic": 4459,
      "ategory": 4460,
      "çĽĸ": 4461,
      "æĢĢ": 4462,
      "Ġincrease": 4463,
      "Ġpie": 4464,
      "ï¼Įå½ĵ": 4465,
      "reate": 4466,
      "ç»§ç»Ń": 4467,
      "%%": 4468,
      "na": 4469,
      "sec": 4470,
      "ĠMarch": 4471,
      "Request": 4472,
      "å¾ĹåĪ°": 4473,
      "ĠAfter": 4474,
      "Ð½": 4475,
      "Ġdetails": 4476,
      "ele": 4477,
      "ceed": 4478,
      "Ġimplement": 4479,
      "Ġbar": 4480,
      "Ġclos": 4481,
      "ĠCount": 4482,
      "Ab": 4483,
      "begin": 4484,
      "bar": 4485,
      "Ġcomplete": 4486,
      "è°Ī": 4487,
      "pack": 4488,
      "izing": 4489,
      "ä»·æł¼": 4490,
      "Ġcompanies": 4491,
      "Ġseem": 4492,
      "Ġpaper": 4493,
      "Ġpercent": 4494,
      "Ġentire": 4495,
      "Ġadded": 4496,
      "Ġmass": 4497,
      "Ġaud": 4498,
      "Ġwond": 4499,
      "å½Ĵ": 4500,
      "Ġcases": 4501,
      "Ġcirc": 4502,
      "Ġpolit": 4503,
      "bol": 4504,
      "çī¹åĪ«": 4505,
      "ees": 4506,
      "PI": 4507,
      "Ġcaus": 4508,
      "ĠNovember": 4509,
      "è§£åĨ³": 4510,
      "ĠSet": 4511,
      "Ġtechnology": 4512,
      "ball": 4513,
      "çĽ®æłĩ": 4514,
      "ï¼Įå¦Ĥæŀľ": 4515,
      "Ġlikely": 4516,
      "Class": 4517,
      "Ġregard": 4518,
      "Ġsystems": 4519,
      "Ġver": 4520,
      "Ġprior": 4521,
      "æķ¢": 4522,
      "åĲĦç§į": 4523,
      "æłĩåĩĨ": 4524,
      "çĻ»": 4525,
      "Ġdifficult": 4526,
      "cho": 4527,
      "å¦ĤæŃ¤": 4528,
      "Ġpain": 4529,
      "UL": 4530,
      "Att": 4531,
      "iol": 4532,
      "yth": 4533,
      "ĠDr": 4534,
      "æĩ": 4535,
      "ä¸ĢæŃ¥": 4536,
      "hel": 4537,
      "Ġbad": 4538,
      "Def": 4539,
      "æĹłæ³ķ": 4540,
      "Ġload": 4541,
      "Ġbo": 4542,
      "æ²»çĸĹ": 4543,
      "å¼¹": 4544,
      "ging": 4545,
      "Ġach": 4546,
      "selves": 4547,
      "Ġdam": 4548,
      "ĠJune": 4549,
      "Comp": 4550,
      "Ġcoun": 4551,
      "ç¨İ": 4552,
      "ç¬¦": 4553,
      "ils": 4554,
      "Ġhalf": 4555,
      "Ġprim": 4556,
      "Ġder": 4557,
      "åŁºç¡": 4558,
      "Field": 4559,
      "Ġnear": 4560,
      "umer": 4561,
      "ï¼Įåı¯ä»¥": 4562,
      "Ġstyle": 4563,
      "Ġmatter": 4564,
      "åĤ¨": 4565,
      "mail": 4566,
      "Ġbrow": 4567,
      "æ±½": 4568,
      "Ġfriends": 4569,
      "é±": 4570,
      "Ġrather": 4571,
      "ided": 4572,
      "äº§çĶŁ": 4573,
      "Ġund": 4574,
      "anced": 4575,
      "ç§Ģ": 4576,
      "iate": 4577,
      "aging": 4578,
      "Ġweight": 4579,
      "¤Ĳ": 4580,
      "Ġproblems": 4581,
      "Ġdocument": 4582,
      "ä¸°": 4583,
      "Of": 4584,
      "aving": 4585,
      "erver": 4586,
      "Ġwait": 4587,
      "åºĶçĶ¨": 4588,
      "Ġapply": 4589,
      "æĽ´å¤ļ": 4590,
      "æ··": 4591,
      "pi": 4592,
      "Ġlength": 4593,
      "igation": 4594,
      "Ġmatch": 4595,
      "Over": 4596,
      "bl": 4597,
      "Ġtold": 4598,
      "Ġevents": 4599,
      "æ´¾": 4600,
      "æķĪæŀľ": 4601,
      "ilit": 4602,
      "åŁºç¡Ģ": 4603,
      "go": 4604,
      "alt": 4605,
      "Ġhom": 4606,
      "å°¼": 4607,
      "å®Įåħ¨": 4608,
      "Ġden": 4609,
      "çīĽ": 4610,
      "https": 4611,
      "å©ļ": 4612,
      "\\x": 4613,
      "Ġwords": 4614,
      "ãĢĤä»ĸ": 4615,
      "Ġsens": 4616,
      "åĬ³": 4617,
      "static": 4618,
      "acc": 4619,
      "Ġbuilding": 4620,
      "çļĦå°ı": 4621,
      "ç¼º": 4622,
      "aching": 4623,
      "å½©": 4624,
      "æ²Ļ": 4625,
      "é±¼": 4626,
      "Ġagre": 4627,
      "åİĤ": 4628,
      "Ġtrying": 4629,
      "ï¼Įä»ĸä»¬": 4630,
      "Ġaccording": 4631,
      "éģ¿": 4632,
      "elt": 4633,
      "ç¼ĵ": 4634,
      "çŃĳ": 4635,
      "æĹ¢": 4636,
      "abled": 4637,
      "Ġpret": 4638,
      "åıªæľī": 4639,
      "Ġways": 4640,
      "Ġlower": 4641,
      "Loc": 4642,
      "Ġcells": 4643,
      "result": 4644,
      "éĢı": 4645,
      "æ°¸": 4646,
      "From": 4647,
      "å¿Ļ": 4648,
      "Ġblack": 4649,
      "lood": 4650,
      "array": 4651,
      "ada": 4652,
      "My": 4653,
      "ayout": 4654,
      "å¹³åı°": 4655,
      "acebook": 4656,
      "Ġtaken": 4657,
      "ä¿ĿæĬ¤": 4658,
      "åģ¥åº·": 4659,
      "Ġplease": 4660,
      "åĢŁ": 4661,
      "atest": 4662,
      "ï¼ĮçĦ¶åĲİ": 4663,
      "Ġtravel": 4664,
      "è§¦": 4665,
      "oper": 4666,
      "åĮ»éĻ¢": 4667,
      "æļĹ": 4668,
      "minist": 4669,
      "ĠPer": 4670,
      "ensive": 4671,
      "åĮĹäº¬": 4672,
      "èĹı": 4673,
      "Ġtypes": 4674,
      "ĠStud": 4675,
      "EL": 4676,
      "ief": 4677,
      "Ġlearning": 4678,
      "_H": 4679,
      "ĠJuly": 4680,
      "æĢª": 4681,
      "å¸®åĬ©": 4682,
      ",åľ¨": 4683,
      "oon": 4684,
      "Ġcreated": 4685,
      "åįĸ": 4686,
      "æ»ĳ": 4687,
      "Ġq": 4688,
      "å®īè£ħ": 4689,
      "æĿĤ": 4690,
      "orks": 4691,
      "_r": 4692,
      "Map": 4693,
      "Sub": 4694,
      "atory": 4695,
      "ÑĢ": 4696,
      "ĠApril": 4697,
      "Ġdest": 4698,
      "Ġaw": 4699,
      "æĶ¯æĮģ": 4700,
      "Ġfront": 4701,
      "ĠOctober": 4702,
      "åħ¶ä¸Ń": 4703,
      "oolean": 4704,
      "unk": 4705,
      "ĠCour": 4706,
      "Ġcoll": 4707,
      "$,": 4708,
      "ĠDep": 4709,
      "race": 4710,
      "assert": 4711,
      "åĽºå®ļ": 4712,
      "ç»į": 4713,
      "Ġalmost": 4714,
      "æ¬§": 4715,
      "è¿ĩåİ»": 4716,
      "just": 4717,
      "çĨŁ": 4718,
      "Ġexperien": 4719,
      "Ġsimply": 4720,
      "ĠCity": 4721,
      "cast": 4722,
      "Out": 4723,
      "éĶ®": 4724,
      "åĢº": 4725,
      "ached": 4726,
      "æŁĵ": 4727,
      "iam": 4728,
      "Ġquite": 4729,
      "summary": 4730,
      "ĠCor": 4731,
      ")(": 4732,
      "å¹´çļĦ": 4733,
      "ç¬Ķ": 4734,
      "oph": 4735,
      "åĪ¤": 4736,
      ")/": 4737,
      "ç»¿": 4738,
      "éĩĩçĶ¨": 4739,
      "ana": 4740,
      "_type": 4741,
      "Ġglobal": 4742,
      "sequ": 4743,
      "Ġmultiple": 4744,
      "ternal": 4745,
      "Ġexpected": 4746,
      "ä¸ļåĬ¡": 4747,
      "Be": 4748,
      "oring": 4749,
      "_L": 4750,
      "çĪ·": 4751,
      "Ġemb": 4752,
      "Ġbed": 4753,
      "Ġreceived": 4754,
      "OV": 4755,
      "ores": 4756,
      "å®¢æĪ·": 4757,
      "Ġwatch": 4758,
      "å¢ŀåĬł": 4759,
      ".e": 4760,
      "ä¸ĢçĤ¹": 4761,
      "Ġdevice": 4762,
      "Ġsection": 4763,
      "rong": 4764,
      "å¥¹çļĦ": 4765,
      "Ġespecially": 4766,
      "Array": 4767,
      "èĢģå¸Ī": 4768,
      "ĠEurope": 4769,
      "åºŃ": 4770,
      "ä½Ľ": 4771,
      "vis": 4772,
      "Ent": 4773,
      "TM": 4774,
      "åħ¶å®ŀ": 4775,
      "Ġorg": 4776,
      "aur": 4777,
      "Ġextra": 4778,
      "éĴĪ": 4779,
      "Ġ+=": 4780,
      "å«": 4781,
      "ï¼ĮåĽłä¸º": 4782,
      "ä»£è¡¨": 4783,
      "åĺ´": 4784,
      "Ġpict": 4785,
      "Ġshows": 4786,
      "æķĳ": 4787,
      "Ġoffers": 4788,
      "Ġste": 4789,
      "ĠArt": 4790,
      "éļľ": 4791,
      "åĵģçīĮ": 4792,
      "ĠCons": 4793,
      "olutions": 4794,
      "witter": 4795,
      "Ġpers": 4796,
      "mon": 4797,
      "mission": 4798,
      "_IN": 4799,
      "ĠSeptember": 4800,
      "è®¡ç®Ĺ": 4801,
      "åīĤ": 4802,
      "ä¸įçŁ¥éģĵ": 4803,
      "ä¹±": 4804,
      "ĠHealth": 4805,
      "Ġcompon": 4806,
      "ç§ĳæĬĢ": 4807,
      "å®ŀéĻħ": 4808,
      "ĠDecember": 4809,
      "ĠSm": 4810,
      "Ġstandard": 4811,
      "IV": 4812,
      "Ġetc": 4813,
      "IF": 4814,
      "é¹": 4815,
      "Ġtw": 4816,
      "åºĬ": 4817,
      "é¡¿": 4818,
      "Ġsolution": 4819,
      "èµĦæºĲ": 4820,
      "å®¹æĺĵ": 4821,
      "æĮ¥": 4822,
      "Ġdisplay": 4823,
      "chan": 4824,
      "Ġestab": 4825,
      "ynam": 4826,
      "Ġoriginal": 4827,
      "Ġcorrect": 4828,
      "éĩĬ": 4829,
      "ĠRec": 4830,
      "aged": 4831,
      "ĠWorld": 4832,
      "CR": 4833,
      "Ġcomplex": 4834,
      "å¼Ģåıĳ": 4835,
      "omet": 4836,
      "éĤ£äºĽ": 4837,
      "ervices": 4838,
      "_RE": 4839,
      "åłĤ": 4840,
      "board": 4841,
      "ĠãĢĤ": 4842,
      "èĦ±": 4843,
      "Ġcompl": 4844,
      "è¯Ĺ": 4845,
      "ä»į": 4846,
      "ety": 4847,
      "Ġknowledge": 4848,
      "Hand": 4849,
      "Ġrelated": 4850,
      "Reg": 4851,
      "light": 4852,
      "èľ": 4853,
      "åŃĶ": 4854,
      "ufact": 4855,
      "Ref": 4856,
      "plit": 4857,
      "Ġunique": 4858,
      "ç²¾ç¥ŀ": 4859,
      "PL": 4860,
      "äº¤æĺĵ": 4861,
      "Ġadditional": 4862,
      "ä»·åĢ¼": 4863,
      "éĿ¢çļĦ": 4864,
      "Rec": 4865,
      "åħ³äºİ": 4866,
      "Ġnil": 4867,
      "ottom": 4868,
      "Ġbool": 4869,
      "ouch": 4870,
      "etic": 4871,
      "å¹¸": 4872,
      "ĠMan": 4873,
      "Ed": 4874,
      "éĺ¶": 4875,
      "see": 4876,
      "Le": 4877,
      "åĲ¯": 4878,
      "å¨ĺ": 4879,
      "Ġnecessary": 4880,
      "Ġbox": 4881,
      "Ġareas": 4882,
      "Ġfavor": 4883,
      "Ġprobably": 4884,
      "ibrary": 4885,
      ".T": 4886,
      "Ġautom": 4887,
      "èĤ¯": 4888,
      "é¤Ĳ": 4889,
      "ĠSome": 4890,
      "è¯¯": 4891,
      "ï¼Įå¤§": 4892,
      "-y": 4893,
      "ĠAugust": 4894,
      "Ñģ": 4895,
      "Ġcontract": 4896,
      "åºĵ": 4897,
      "ä»¥ä¸Ĭ": 4898,
      "check": 4899,
      "è·Ŀ": 4900,
      "rame": 4901,
      "å½¢æĪĲ": 4902,
      "ĠJanuary": 4903,
      "ilter": 4904,
      "istance": 4905,
      "æİĮ": 4906,
      "Ġsecurity": 4907,
      "æĺ¯åĲ¦": 4908,
      "Ġapproach": 4909,
      "Val": 4910,
      "loat": 4911,
      "è§Ħå®ļ": 4912,
      "Ġexpress": 4913,
      "ĠList": 4914,
      "pm": 4915,
      "åĨ°": 4916,
      "leep": 4917,
      "ĠSchool": 4918,
      "Ġeveryone": 4919,
      "æ¦Ĥ": 4920,
      "CE": 4921,
      "ĠNULL": 4922,
      "where": 4923,
      "ãĢĤèĢĮ": 4924,
      "ptions": 4925,
      "Ġpolicy": 4926,
      "å·¨": 4927,
      "Ġevidence": 4928,
      "æĺ¯ä¸Ģä¸ª": 4929,
      "ï¼ĮåıĪ": 4930,
      "_{\\": 4931,
      "Ġdownload": 4932,
      "eturn": 4933,
      "PS": 4934,
      "CL": 4935,
      "åİĨåı²": 4936,
      "ocol": 4937,
      "no": 4938,
      "é¥Ń": 4939,
      "Ġprofessional": 4940,
      "è¯¢": 4941,
      "Ġlimit": 4942,
      "oke": 4943,
      "Ġimm": 4944,
      "Ġcustomers": 4945,
      "Ġnatural": 4946,
      "md": 4947,
      "ĠNow": 4948,
      "ç§ĳåŃ¦": 4949,
      "çŁ¥è¯Ĩ": 4950,
      "Inter": 4951,
      "Ġreading": 4952,
      "Ġforward": 4953,
      "Ġengine": 4954,
      "ĠRead": 4955,
      "Ġnothing": 4956,
      "æĪĲåĬŁ": 4957,
      "ä½įç½®": 4958,
      "Ġisn": 4959,
      "æ¸Ĳ": 4960,
      "Ġpositive": 4961,
      "éŃĶ": 4962,
      "èµµ": 4963,
      "ï¼ĮèĢĮä¸Ķ": 4964,
      "åĹ": 4965,
      "ĠĠĠĠĠĠĠĠĠĠĠĠĠĠĠĠĠĠĠĠĠĠĠĠĠĠĠ": 4966,
      "æİ¢": 4967,
      "Ġfit": 4968,
      "verse": 4969,
      "Ġcalcul": 4970,
      "Ġep": 4971,
      "Dis": 4972,
      "Ġcause": 4973,
      "resp": 4974,
      "Ġword": 4975,
      "Ġliving": 4976,
      "Ġvalid": 4977,
      "Ã¤": 4978,
      "ĠYork": 4979,
      "åŁºéĩĳ": 4980,
      "roller": 4981,
      "å»¶": 4982,
      "ç»ıèĲ¥": 4983,
      "éļĲ": 4984,
      "AA": 4985,
      "å®Ĺ": 4986,
      "æĺ¯åľ¨": 4987,
      "rest": 4988,
      "ĠOut": 4989,
      "ĠAcc": 4990,
      "Ġusers": 4991,
      "æ·¡": 4992,
      "Ġjud": 4993,
      "Ġfeature": 4994,
      "åħ·ä½ĵ": 4995,
      "ç®Ģåįķ": 4996,
      "augh": 4997,
      "ĠÏ": 4998,
      "Ġwhite": 4999,
      "åħ¸": 5000,
      "Ġstop": 5001,
      "iddle": 5002,
      "Ġgrowth": 5003,
      "è®¡åĪĴ": 5004,
      "Ġexact": 5005,
      "ï¼īï¼Į": 5006,
      "Ġsepar": 5007,
      "Ġplatform": 5008,
      "Ġstat": 5009,
      "aily": 5010,
      "Ġlevels": 5011,
      "åįĪ": 5012,
      "Ġitem": 5013,
      "æĿ¡ä»¶": 5014,
      "ĠFin": 5015,
      "field": 5016,
      "tes": 5017,
      "åĪĢ": 5018,
      "Ġincludes": 5019,
      "_R": 5020,
      "Ġchoose": 5021,
      "Trans": 5022,
      "ql": 5023,
      "icon": 5024,
      "Ġfinancial": 5025,
      "fl": 5026,
      "ç©ºéĹ´": 5027,
      "åĶĲ": 5028,
      "å°ļ": 5029,
      "User": 5030,
      "ä¸įæĸŃ": 5031,
      "sy": 5032,
      "overed": 5033,
      "Ġensure": 5034,
      "apter": 5035,
      "amed": 5036,
      "Ġrecogn": 5037,
      "çĶ°": 5038,
      "Ġsix": 5039,
      "ĠOF": 5040,
      "Ġcas": 5041,
      "Form": 5042,
      "Ġrunning": 5043,
      "Ġeval": 5044,
      "ĠNews": 5045,
      "åĪ©çĶ¨": 5046,
      "åİŁåĽł": 5047,
      "åīĳ": 5048,
      "ä¼Ļ": 5049,
      "åĪ¸": 5050,
      "è¡Ĺ": 5051,
      "gen": 5052,
      "Ġtitle": 5053,
      "è¿İ": 5054,
      "Ġinstead": 5055,
      "Ġdiv": 5056,
      "ĠMc": 5057,
      "ç®±": 5058,
      "çĿ¡": 5059,
      "æľ«": 5060,
      "aced": 5061,
      "é½Ĳ": 5062,
      "Sp": 5063,
      "eks": 5064,
      "æĽ´åĬł": 5065,
      "åĸĿ": 5066,
      "reak": 5067,
      "ming": 5068,
      "Code": 5069,
      "Ġinstance": 5070,
      "Ġbeautiful": 5071,
      "ï¼Įè¦ģ": 5072,
      "coming": 5073,
      "èĻĳ": 5074,
      "ĠâĪ": 5075,
      "Ġshown": 5076,
      "(&": 5077,
      "é¦Ĩ": 5078,
      "Ġmark": 5079,
      "Ġwanted": 5080,
      "Ġyourself": 5081,
      "Ġdise": 5082,
      "Ġbehav": 5083,
      "Ġasked": 5084,
      "ĠGe": 5085,
      "_V": 5086,
      "Ġtakes": 5087,
      "Ġgirl": 5088,
      "åĲĪä½ľ": 5089,
      "Ġground": 5090,
      "Ġreceive": 5091,
      "ĠOff": 5092,
      "éª¨": 5093,
      "Ġgrad": 5094,
      "/s": 5095,
      "NA": 5096,
      "point": 5097,
      "map": 5098,
      "ï¼Įåį´": 5099,
      "Ġintrodu": 5100,
      "è¿Ļæł·çļĦ": 5101,
      "Ġmap": 5102,
      "ĠOR": 5103,
      "Ġmoment": 5104,
      "çĬ¶æĢģ": 5105,
      "Ġsoon": 5106,
      "éĿ©": 5107,
      "Ġcover": 5108,
      "airs": 5109,
      "nov": 5110,
      "olid": 5111,
      "Result": 5112,
      "Message": 5113,
      "ĠWill": 5114,
      "ĠPres": 5115,
      "Ġinside": 5116,
      "iation": 5117,
      "ĠTra": 5118,
      "ĠPar": 5119,
      "Ġill": 5120,
      "erve": 5121,
      "âĢĺ": 5122,
      "que": 5123,
      "ĠUp": 5124,
      "çŃ¾": 5125,
      "Ġselect": 5126,
      "Ġparty": 5127,
      "Ġshall": 5128,
      "Ġeffic": 5129,
      "âĳ": 5130,
      "hold": 5131,
      "Ġseems": 5132,
      "Service": 5133,
      "çĥŁ": 5134,
      "ç¿»": 5135,
      "åĿı": 5136,
      "å´": 5137,
      "Ġful": 5138,
      "Ġsche": 5139,
      "ĠPe": 5140,
      "ĠAm": 5141,
      "ĠNational": 5142,
      "Ġessential": 5143,
      "Ġfoot": 5144,
      "gr": 5145,
      "One": 5146,
      "è¯´æĺİ": 5147,
      "xy": 5148,
      "æĿĨ": 5149,
      "ersion": 5150,
      "enu": 5151,
      "ç»¼": 5152,
      "è¿ĲåĬ¨": 5153,
      "irtual": 5154,
      "å¥¥": 5155,
      "èĻļ": 5156,
      "åį±": 5157,
      "Ġgroups": 5158,
      "åľ£": 5159,
      "æ¸¯": 5160,
      "Ġnormal": 5161,
      "éĩĮçļĦ": 5162,
      "-based": 5163,
      "ä¼ĳ": 5164,
      "é¢ľ": 5165,
      "æĸ°çļĦ": 5166,
      "Ġusually": 5167,
      "ĠThen": 5168,
      "signed": 5169,
      "unt": 5170,
      "ĠBr": 5171,
      "Ġitems": 5172,
      "äººä»¬": 5173,
      "args": 5174,
      "æĥ³è¦ģ": 5175,
      "Ġcy": 5176,
      "ĠHere": 5177,
      "Ġcoming": 5178,
      "Ġdeath": 5179,
      "Ġinitial": 5180,
      "Ġdecision": 5181,
      "Ġassociated": 5182,
      "æĸ¹åĲĳ": 5183,
      "åľĨ": 5184,
      "_data": 5185,
      "ĠSec": 5186,
      ".B": 5187,
      "è´Łè´£": 5188,
      "ĠNone": 5189,
      "éŁ©": 5190,
      "æĿ¥äºĨ": 5191,
      "ges": 5192,
      "UE": 5193,
      "ĠDef": 5194,
      "Ġlonger": 5195,
      "Ġhref": 5196,
      "Ġincluded": 5197,
      "atur": 5198,
      "Ġfast": 5199,
      "Ġbackground": 5200,
      "$\\": 5201,
      "ython": 5202,
      "Ġoutside": 5203,
      "ĠSouth": 5204,
      "è®¸å¤ļ": 5205,
      "Ġrights": 5206,
      "lient": 5207,
      "è¶£": 5208,
      "Ġsense": 5209,
      "æĹ§": 5210,
      "Ġprep": 5211,
      "Count": 5212,
      "ç«ŀ": 5213,
      "çªģçĦ¶": 5214,
      ",èĢĮ": 5215,
      "Ġpretty": 5216,
      "Ġ((": 5217,
      "éĽĨåĽ¢": 5218,
      "ĠHis": 5219,
      "çģ¯": 5220,
      ".W": 5221,
      "éĩİ": 5222,
      "pty": 5223,
      "æ¤į": 5224,
      "èĪª": 5225,
      "\"]": 5226,
      "ç¡¬": 5227,
      "Ġdraw": 5228,
      "object": 5229,
      "ä»¥ä¸ĭ": 5230,
      "aker": 5231,
      "Ġpopular": 5232,
      "bf": 5233,
      "anel": 5234,
      "çīĻ": 5235,
      "[\"": 5236,
      "lim": 5237,
      "Ġpm": 5238,
      "down": 5239,
      "ATE": 5240,
      "Ġregular": 5241,
      "Ġcondition": 5242,
      "Ġwritten": 5243,
      "èİ«": 5244,
      "ĠTHE": 5245,
      "urb": 5246,
      "rivacy": 5247,
      "lin": 5248,
      "éĨĴ": 5249,
      "æ¶¦": 5250,
      "æİĪ": 5251,
      "ĠJust": 5252,
      "create": 5253,
      "éĥ¨éĹ¨": 5254,
      "ĠTrans": 5255,
      "********************************": 5256,
      "çĹĩ": 5257,
      "æŃ£åľ¨": 5258,
      "æĬĵ": 5259,
      "ï¼İ": 5260,
      "Ġelement": 5261,
      "ĠAust": 5262,
      "state": 5263,
      "nown": 5264,
      "Ġmember": 5265,
      "éĺ´": 5266,
      "ournal": 5267,
      "Ġstructure": 5268,
      "char": 5269,
      "æıĲåįĩ": 5270,
      "å£°éŁ³": 5271,
      "Ġoffice": 5272,
      "Ġstatus": 5273,
      "Ġconcern": 5274,
      "ĠSun": 5275,
      "ipe": 5276,
      "Ġfeed": 5277,
      "ube": 5278,
      "wise": 5279,
      "ĠPublic": 5280,
      "Ġbal": 5281,
      "Ġclient": 5282,
      "ĠRed": 5283,
      ">>": 5284,
      "Ġoil": 5285,
      "ä»ĭç»į": 5286,
      "åĽ°": 5287,
      "ç¡®å®ļ": 5288,
      "çĶµè¯Ŀ": 5289,
      "Ġsequ": 5290,
      "Ġç¬¬": 5291,
      "II": 5292,
      "idered": 5293,
      "æģ¶": 5294,
      "gy": 5295,
      "Ġrecent": 5296,
      "trans": 5297,
      "label": 5298,
      "ĠOf": 5299,
      "Ġchalleng": 5300,
      "Ġprevent": 5301,
      "ĠGeneral": 5302,
      "Ġpropos": 5303,
      "ä¸ĩåħĥ": 5304,
      "arc": 5305,
      "æĺ¾ç¤º": 5306,
      "é¥®": 5307,
      "TE": 5308,
      "èĢ³": 5309,
      "æĿŁ": 5310,
      "é¢ĨåŁŁ": 5311,
      "$.": 5312,
      "ä½³": 5313,
      "æĬ¥åĳĬ": 5314,
      "é»ĺ": 5315,
      "Ð¾Ð": 5316,
      "æĭ¥æľī": 5317,
      "å»ºçŃĳ": 5318,
      "Ġstaff": 5319,
      "æı¡": 5320,
      "Ġ**": 5321,
      "ui": 5322,
      "ĠTest": 5323,
      "Ġeducation": 5324,
      "åħ¨åĽ½": 5325,
      "Ġmeasure": 5326,
      "Our": 5327,
      "ĠNorth": 5328,
      "Ġproduction": 5329,
      "ĠInc": 5330,
      "Ġfire": 5331,
      "Ġbehind": 5332,
      "å¯¼èĩ´": 5333,
      "åľ°åĮº": 5334,
      "ç§ĭ": 5335,
      "è£ħç½®": 5336,
      "é²ľ": 5337,
      "Ġmethods": 5338,
      "çĥĪ": 5339,
      "èĮĥåĽ´": 5340,
      "åĩłä¸ª": 5341,
      "Ġpractice": 5342,
      "ĠFree": 5343,
      "irection": 5344,
      "ken": 5345,
      "åĪº": 5346,
      "Ġsqu": 5347,
      "åıĺåĮĸ": 5348,
      "Ġuses": 5349,
      "Ġlocation": 5350,
      "Ġmaintain": 5351,
      "change": 5352,
      "ï¼Įå¦Ĥ": 5353,
      "ä¸įå¾Ĺ": 5354,
      "éļıçĿĢ": 5355,
      "èĽĭ": 5356,
      "lied": 5357,
      "éĢĲ": 5358,
      "witch": 5359,
      "uk": 5360,
      "Ġmedical": 5361,
      "æĮīçħ§": 5362,
      "Model": 5363,
      "åľĪ": 5364,
      "éľĢæ±Ĥ": 5365,
      "Ġfrequ": 5366,
      "Ġactivity": 5367,
      "ï½": 5368,
      "æ´Ľ": 5369,
      "æ§": 5370,
      "äº§ä¸ļ": 5371,
      "éĶĢåĶ®": 5372,
      "CK": 5373,
      "Ġclick": 5374,
      "MS": 5375,
      "cd": 5376,
      "Ġaccom": 5377,
      "ĠAf": 5378,
      "Ġnames": 5379,
      "osition": 5380,
      "ailed": 5381,
      "Ġboard": 5382,
      "æľīæķĪ": 5383,
      ".html": 5384,
      "abase": 5385,
      "Ġåľ¨": 5386,
      "åĲĽ": 5387,
      "Ġphone": 5388,
      "Ġeffects": 5389,
      "åĨ³å®ļ": 5390,
      "used": 5391,
      "oe": 5392,
      "Ġdefined": 5393,
      "ç»©": 5394,
      "Ġï¼Ī": 5395,
      "ĠFebruary": 5396,
      "Ġappear": 5397,
      "Ġeffective": 5398,
      "Ġnode": 5399,
      "Ġweeks": 5400,
      "èĵĿ": 5401,
      ".L": 5402,
      "comes": 5403,
      "æī§è¡Į": 5404,
      "Ġworth": 5405,
      "Ġopp": 5406,
      "_ST": 5407,
      "çº¸": 5408,
      "é¥°": 5409,
      "ained": 5410,
      "å¸ģ": 5411,
      "Ġleave": 5412,
      "Ġconsidered": 5413,
      "Ġscreen": 5414,
      "-to": 5415,
      "æĳĩ": 5416,
      "ences": 5417,
      "Ġcross": 5418,
      "MA": 5419,
      "evice": 5420,
      "æ¶Īè´¹": 5421,
      "æ´²": 5422,
      "info": 5423,
      "è´£ä»»": 5424,
      "Ġcredit": 5425,
      "Ġtrust": 5426,
      "aches": 5427,
      "éĻ¤äºĨ": 5428,
      "part": 5429,
      "isf": 5430,
      "è´¥": 5431,
      "è¡Įä¸º": 5432,
      "èµ¶": 5433,
      "aves": 5434,
      "éļĶ": 5435,
      "angle": 5436,
      "è½´": 5437,
      "[@": 5438,
      "function": 5439,
      "NS": 5440,
      "Ġveh": 5441,
      "Color": 5442,
      "valid": 5443,
      "åį·": 5444,
      "ä¸įåĪ°": 5445,
      "å½ĵçĦ¶": 5446,
      "Ġavoid": 5447,
      "istics": 5448,
      "func": 5449,
      "Ġord": 5450,
      "=\\": 5451,
      "æľīåħ³": 5452,
      "åı¯æĺ¯": 5453,
      "OW": 5454,
      "å¯»": 5455,
      "Ġheld": 5456,
      "iment": 5457,
      "à¤": 5458,
      "Ġdeep": 5459,
      "Ġupd": 5460,
      "ĠPa": 5461,
      "èĶ": 5462,
      "ãĢĤâĢľ": 5463,
      "ening": 5464,
      "rypt": 5465,
      "oes": 5466,
      "å¥¶": 5467,
      "ANT": 5468,
      "Ġdesigned": 5469,
      "Ġsound": 5470,
      "Ġconsist": 5471,
      "link": 5472,
      "Pr": 5473,
      "weet": 5474,
      "æĬĺ": 5475,
      "Image": 5476,
      "Ġ]": 5477,
      "æģ©": 5478,
      "lier": 5479,
      "emp": 5480,
      "åĨł": 5481,
      "ä¼°": 5482,
      "Ġcustomer": 5483,
      "inding": 5484,
      "ç«¥": 5485,
      "pri": 5486,
      "è¡¨çİ°": 5487,
      "olve": 5488,
      "æľºä¼ļ": 5489,
      "è¿Ļæĺ¯": 5490,
      "Che": 5491,
      "atal": 5492,
      "ç¼©": 5493,
      "ille": 5494,
      "è´¦": 5495,
      "Ġinj": 5496,
      "dis": 5497,
      "Ġcontribut": 5498,
      "ship": 5499,
      "ework": 5500,
      "emic": 5501,
      "Ġstates": 5502,
      "Ġblood": 5503,
      "ĠFrom": 5504,
      "izes": 5505,
      "èį£": 5506,
      "ä¸ºä»Ģä¹Ī": 5507,
      "Ġfiles": 5508,
      "æ±ł": 5509,
      "Ġallows": 5510,
      "ä¸įåı¯": 5511,
      "ç§ĺ": 5512,
      "Ġability": 5513,
      "åĩºçļĦ": 5514,
      "ãĢĮ": 5515,
      "ĠIS": 5516,
      "ä¸Ĭæµ·": 5517,
      "æĸĩä»¶": 5518,
      "Ġskills": 5519,
      "qrt": 5520,
      "ĠGoogle": 5521,
      "çĿĽ": 5522,
      "ĠDon": 5523,
      "_G": 5524,
      "Ġwindow": 5525,
      "èĤ¤": 5526,
      "ï¼Įæ¯ı": 5527,
      "Ġhon": 5528,
      "åĲİçļĦ": 5529,
      "Ġhit": 5530,
      "åİļ": 5531,
      "len": 5532,
      "å±ĭ": 5533,
      "Table": 5534,
      "Ġsend": 5535,
      "anch": 5536,
      "hood": 5537,
      "Manager": 5538,
      "istry": 5539,
      "çĶ³è¯·": 5540,
      "ĠæĪĳ": 5541,
      "ament": 5542,
      "ĠData": 5543,
      "uge": 5544,
      "Ġstudies": 5545,
      "Ġtemper": 5546,
      ",ä½Ĩ": 5547,
      "miss": 5548,
      "æķ´ä¸ª": 5549,
      "Ġfilm": 5550,
      "ĠNet": 5551,
      "Hel": 5552,
      "æīĭæľº": 5553,
      "æĥ³åĪ°": 5554,
      "Ġitself": 5555,
      ")\\": 5556,
      "ï¼ĮåĨį": 5557,
      "chen": 5558,
      "ĠĠĠĠĠĠĠĠĠĠĠĠĠĠ": 5559,
      ".app": 5560,
      "ĠSoc": 5561,
      "Ġprotect": 5562,
      "Ġaverage": 5563,
      "Ġpublished": 5564,
      "(i": 5565,
      "Ġmodels": 5566,
      "æĸ¹æ¡Ī": 5567,
      "Ġsave": 5568,
      "Ġbrand": 5569,
      "åıĤåĬł": 5570,
      "Î±": 5571,
      "met": 5572,
      "Ġroad": 5573,
      "ä¼ļè®®": 5574,
      "Ġ($": 5575,
      "åĳĬè¯ī": 5576,
      "Ġmention": 5577,
      "æĮĳ": 5578,
      "Ġcurrently": 5579,
      "PC": 5580,
      "æĹģ": 5581,
      "éĽ¶": 5582,
      "ä¿ĿæĮģ": 5583,
      "ama": 5584,
      "Ġanyone": 5585,
      "æ¨¡å¼ı": 5586,
      "Ġrecommend": 5587,
      "å·Ŀ": 5588,
      "Ġmarketing": 5589,
      "çĪ¸": 5590,
      "Ġpattern": 5591,
      "Ã¡": 5592,
      "æīįèĥ½": 5593,
      "è¿ĩæĿ¥": 5594,
      "å³°": 5595,
      "é£İéĻ©": 5596,
      "æĻºèĥ½": 5597,
      "Ġconduct": 5598,
      "df": 5599,
      "uate": 5600,
      "ĠPM": 5601,
      "Ġdru": 5602,
      "Ġwall": 5603,
      "Ġrout": 5604,
      "like": 5605,
      "bit": 5606,
      "Ġsubs": 5607,
      "ares": 5608,
      "_size": 5609,
      "UM": 5610,
      "åİħ": 5611,
      "èĥ¡": 5612,
      "leased": 5613,
      "åŃĻ": 5614,
      "Ġspeed": 5615,
      "Ġupdate": 5616,
      "Ġchoice": 5617,
      "éĵ¶è¡Į": 5618,
      "ifier": 5619,
      "php": 5620,
      "(this": 5621,
      "Ġwonder": 5622,
      "Ġcenter": 5623,
      "ç§¦": 5624,
      "urg": 5625,
      "å¯Ĵ": 5626,
      "éĽħ": 5627,
      "ï¼Įéĥ½": 5628,
      "Ġinsurance": 5629,
      "èµĦéĩĳ": 5630,
      "zon": 5631,
      "ĠCourt": 5632,
      "çĶµåŃĲ": 5633,
      "åĪĨéĴŁ": 5634,
      "Ġcomments": 5635,
      "Ġideas": 5636,
      "public": 5637,
      "That": 5638,
      "asons": 5639,
      "IB": 5640,
      "Ġactivities": 5641,
      "âĢĻd": 5642,
      "ellow": 5643,
      "Ġattack": 5644,
      "ependent": 5645,
      "æł·çļĦ": 5646,
      "uilder": 5647,
      "ĠMon": 5648,
      "Ġopportunity": 5649,
      "_i": 5650,
      "åĩ¡": 5651,
      "else": 5652,
      "æ±½è½¦": 5653,
      "ç¦ģ": 5654,
      "éº»": 5655,
      "reet": 5656,
      "ese": 5657,
      "Ġinflu": 5658,
      "åģı": 5659,
      "æĬ±": 5660,
      "è¿·": 5661,
      "input": 5662,
      "api": 5663,
      "Ġsil": 5664,
      "ipment": 5665,
      "ï¼Įå®ĥ": 5666,
      "zz": 5667,
      "opyright": 5668,
      "AY": 5669,
      "ĠJava": 5670,
      "è·³": 5671,
      "è¾¾åĪ°": 5672,
      "å®ľ": 5673,
      "Ġdifference": 5674,
      "ä¹ĭä¸Ģ": 5675,
      "Ġexecut": 5676,
      "Ġresources": 5677,
      "ä¸ĭçļĦ": 5678,
      "æĤ£èĢħ": 5679,
      "æ¯«": 5680,
      "Ġreported": 5681,
      "à¸": 5682,
      "çĪĨ": 5683,
      "-n": 5684,
      "Ġsn": 5685,
      "ĠPark": 5686,
      "TH": 5687,
      "èĪŀ": 5688,
      "é¬": 5689,
      "è®¨": 5690,
      "rief": 5691,
      "æ°´å¹³": 5692,
      "ä¿ĥ": 5693,
      "ĠCenter": 5694,
      "Ġwrong": 5695,
      "Ġpric": 5696,
      "å°¤": 5697,
      "amples": 5698,
      "èĪ¹": 5699,
      "Ġfactors": 5700,
      "efore": 5701,
      "Ġtrial": 5702,
      "ä¼¸": 5703,
      "ĠPat": 5704,
      "Ġmanufact": 5705,
      "oms": 5706,
      "ĠEl": 5707,
      "æĪĳä»¬çļĦ": 5708,
      "///": 5709,
      "Mod": 5710,
      "ptr": 5711,
      ".x": 5712,
      "çĽŁ": 5713,
      "æģĲ": 5714,
      "ĠHigh": 5715,
      "Ġdecl": 5716,
      "Ġones": 5717,
      "ç»ıè¿ĩ": 5718,
      "Rep": 5719,
      "size": 5720,
      "æ¯ĶèµĽ": 5721,
      "/d": 5722,
      "aries": 5723,
      "åªĴ": 5724,
      "izer": 5725,
      "åºĨ": 5726,
      "Ġdirectly": 5727,
      "Ġgra": 5728,
      "Ġthroughout": 5729,
      "Property": 5730,
      "çĸ¾": 5731,
      "Ġbooks": 5732,
      "emplate": 5733,
      "Ġsaw": 5734,
      "æľīä¸Ģ": 5735,
      "ership": 5736,
      "atives": 5737,
      "Ġready": 5738,
      "å¿ĥéĩĮ": 5739,
      "åħĪçĶŁ": 5740,
      "ports": 5741,
      "Ġskin": 5742,
      "ĠBar": 5743,
      "irit": 5744,
      "osing": 5745,
      "çĺ": 5746,
      "Ġhttp": 5747,
      "mitted": 5748,
      "-C": 5749,
      "å°±ä¼ļ": 5750,
      "èĳ£": 5751,
      "Ġkids": 5752,
      "~~": 5753,
      "EO": 5754,
      "sk": 5755,
      "æĶ¶åħ¥": 5756,
      "Ġhappy": 5757,
      "ederal": 5758,
      "irth": 5759,
      "ĠDay": 5760,
      "active": 5761,
      "Ġregion": 5762,
      "gment": 5763,
      "aling": 5764,
      "éĢłæĪĲ": 5765,
      "Ġviol": 5766,
      "åĬª": 5767,
      "alpha": 5768,
      "ä½ľåĵģ": 5769,
      "bor": 5770,
      "\".": 5771,
      "Ġlegal": 5772,
      "çľ¼çĿĽ": 5773,
      "uy": 5774,
      "with": 5775,
      "åħ³æ³¨": 5776,
      "body": 5777,
      "ius": 5778,
      "æĢ§çļĦ": 5779,
      "ä¿Ŀè¯ģ": 5780,
      "ĠWhile": 5781,
      "ĠSk": 5782,
      "å¼±": 5783,
      "åĶ¿": 5784,
      "default": 5785,
      "å®ĩ": 5786,
      "Ġeasily": 5787,
      "èīºæľ¯": 5788,
      "è¯º": 5789,
      "æī¬": 5790,
      "Ġsales": 5791,
      "more": 5792,
      "ĠVal": 5793,
      "ha": 5794,
      "Call": 5795,
      "ij": 5796,
      "Ġlooks": 5797,
      "Ġinvolved": 5798,
      "è¾Ĩ": 5799,
      "'d": 5800,
      "Ġattempt": 5801,
      "ç´¯": 5802,
      "Ġnumbers": 5803,
      ".is": 5804,
      "Ġcand": 5805,
      "soft": 5806,
      "vey": 5807,
      ":\"": 5808,
      "Ġlives": 5809,
      "å±ŀäºİ": 5810,
      "ä»ª": 5811,
      "illing": 5812,
      "actions": 5813,
      "åĲ´": 5814,
      "Element": 5815,
      "Ġå¹´": 5816,
      "Ġtim": 5817,
      "ä¼´": 5818,
      "åĪĨåĪ«": 5819,
      "Ġimmed": 5820,
      "lication": 5821,
      "çĴ": 5822,
      "æ¾": 5823,
      "éĵ¾": 5824,
      "Ġamaz": 5825,
      "Ġquant": 5826,
      "ä»Ļ": 5827,
      "ĠInter": 5828,
      "å²Ľ": 5829,
      "å¦¹": 5830,
      "cret": 5831,
      "ĠService": 5832,
      "Ġheav": 5833,
      ",ä¸į": 5834,
      "Ġcomfort": 5835,
      "Ġthemselves": 5836,
      "Ġexcept": 5837,
      "æľīäºº": 5838,
      "Ġcam": 5839,
      "dom": 5840,
      "Ġslow": 5841,
      "respond": 5842,
      "Ġrow": 5843,
      "ï¼Įä½¿": 5844,
      "ĠMr": 5845,
      "Ġgraph": 5846,
      "mas": 5847,
      "Ġassess": 5848,
      "gor": 5849,
      "arter": 5850,
      "Ġbuilt": 5851,
      "Ġfunctions": 5852,
      "ç½ª": 5853,
      "Ġdim": 5854,
      "æĿ¯": 5855,
      "éĺ»": 5856,
      "è®¿": 5857,
      "ham": 5858,
      "ART": 5859,
      "../../": 5860,
      "Ġstri": 5861,
      "è´´": 5862,
      "PR": 5863,
      "éĩĳèŀį": 5864,
      "Ġplayers": 5865,
      "Ġfund": 5866,
      "è¿Ľä¸ĢæŃ¥": 5867,
      "éľĩ": 5868,
      "ĠLaw": 5869,
      "Ġsurface": 5870,
      "ridge": 5871,
      "prot": 5872,
      "æıı": 5873,
      "Ġgives": 5874,
      "Ġmix": 5875,
      "Ġelements": 5876,
      "åĲī": 5877,
      "Ġsort": 5878,
      "Ġcollect": 5879,
      "ä»»åĬ¡": 5880,
      ",\\": 5881,
      "Ut": 5882,
      "Ġbenefits": 5883,
      "Ġtask": 5884,
      "ponent": 5885,
      "Ġprec": 5886,
      "çĿ£": 5887,
      "Ġwar": 5888,
      "(int": 5889,
      "Ġdriv": 5890,
      "acity": 5891,
      "isions": 5892,
      "Ġcouple": 5893,
      "aign": 5894,
      "eries": 5895,
      "Ġphysical": 5896,
      "ĠCounty": 5897,
      "ãĢĤå¦Ĥæŀľ": 5898,
      "path": 5899,
      "lation": 5900,
      "ðŁ": 5901,
      "èī²çļĦ": 5902,
      "å¤ļå°ĳ": 5903,
      "Ġenter": 5904,
      "Ġsus": 5905,
      "iring": 5906,
      "Ġparts": 5907,
      "ĠAM": 5908,
      "éķľ": 5909,
      "Ġdigital": 5910,
      "Ġbank": 5911,
      "åĨĮ": 5912,
      "ĠID": 5913,
      "ĠFirst": 5914,
      "Ġcommit": 5915,
      "oto": 5916,
      "Ġprote": 5917,
      "Ġsell": 5918,
      "Ġrelease": 5919,
      "çĽĽ": 5920,
      "lying": 5921,
      "æĳĦ": 5922,
      "Ġcompared": 5923,
      "Ġtools": 5924,
      "Ġcho": 5925,
      "inition": 5926,
      "åŃ¦éĻ¢": 5927,
      "Ġhor": 5928,
      "Ġquickly": 5929,
      "éĽĦ": 5930,
      "ĠClass": 5931,
      "position": 5932,
      "ç»ĵåĲĪ": 5933,
      "ä»¥åĲİ": 5934,
      "åįģåĪĨ": 5935,
      "çĤİ": 5936,
      "lear": 5937,
      "åĬĽéĩı": 5938,
      "çº·": 5939,
      "çĥ§": 5940,
      "ï¼Įæľ¬": 5941,
      "Ġunderstanding": 5942,
      "ĠCON": 5943,
      "å¢Ļ": 5944,
      "ĠAre": 5945,
      "ĠAmerica": 5946,
      "Ġ;": 5947,
      "(a": 5948,
      "Ġround": 5949,
      "Ġlatest": 5950,
      "-up": 5951,
      "elta": 5952,
      "eq": 5953,
      "BC": 5954,
      "itch": 5955,
      "Ġremember": 5956,
      "erences": 5957,
      "åĽ½åĨħ": 5958,
      "å¼Ģå±ķ": 5959,
      "Ġjava": 5960,
      "Ġrecently": 5961,
      "ç»¼åĲĪ": 5962,
      "è°ĵ": 5963,
      "çļĦæĥħåĨµ": 5964,
      "_W": 5965,
      "TER": 5966,
      "rast": 5967,
      "æĲŃ": 5968,
      "ĠDav": 5969,
      "äºĪ": 5970,
      "ç¦»å¼Ģ": 5971,
      "ny": 5972,
      "éģĹ": 5973,
      "çļĦäºĭ": 5974,
      "Ġplant": 5975,
      "ecause": 5976,
      "Ġstream": 5977,
      "æķĻåŃ¦": 5978,
      "ambda": 5979,
      "Ġdrive": 5980,
      "aby": 5981,
      "å¿į": 5982,
      "Ġmother": 5983,
      "Ġgoal": 5984,
      "ĠSch": 5985,
      "Ġproced": 5986,
      "Ġbound": 5987,
      "inate": 5988,
      "å¹ķ": 5989,
      "Ġarch": 5990,
      "å»ºè®®": 5991,
      "Ġdemon": 5992,
      "å°ıæĹ¶": 5993,
      "Ġmechan": 5994,
      "Ġsites": 5995,
      "ĠWest": 5996,
      "Ġconcept": 5997,
      "Response": 5998,
      "çº¯": 5999,
      "uint": 6000,
      "Ġstreng": 6001,
      "Ġincreased": 6002,
      "ula": 6003,
      "Ġcosts": 6004,
      "éĺħ": 6005,
      "mt": 6006,
      "çĽ¸ä¿¡": 6007,
      "uel": 6008,
      "Ġcomputer": 6009,
      "Ġprograms": 6010,
      "å®½": 6011,
      "Ġlate": 6012,
      "-year": 6013,
      "å¾Ħ": 6014,
      "enses": 6015,
      "éĹŃ": 6016,
      "semb": 6017,
      "Ġsong": 6018,
      "*/": 6019,
      "Ġsafe": 6020,
      "æł¹æľ¬": 6021,
      "Ġextrem": 6022,
      "anger": 6023,
      "ä¼łç»Ł": 6024,
      "Ġque": 6025,
      "max": 6026,
      "erial": 6027,
      "ests": 6028,
      "enge": 6029,
      "Stream": 6030,
      "ç§Ł": 6031,
      "ugin": 6032,
      "Ġstock": 6033,
      "image": 6034,
      "ä¼¼ä¹İ": 6035,
      "Ġcool": 6036,
      "æĪĲæľ¬": 6037,
      "Ġuint": 6038,
      "Ġlines": 6039,
      "Ġlost": 6040,
      "ulations": 6041,
      "Ġstra": 6042,
      "è¿ĩç¨ĭä¸Ń": 6043,
      "å¹¶ä¸į": 6044,
      "Point": 6045,
      "æ£Ģæµĭ": 6046,
      "åħ¨éĥ¨": 6047,
      "ĠHouse": 6048,
      "Ġcollection": 6049,
      "duc": 6050,
      "Ġmachine": 6051,
      "Ġmicro": 6052,
      "/or": 6053,
      "Ġserver": 6054,
      "å¡Ķ": 6055,
      "itable": 6056,
      "Ġsubst": 6057,
      "Ġcommand": 6058,
      "ç¨ĭåºı": 6059,
      "ĠAc": 6060,
      "Ġbasic": 6061,
      "nes": 6062,
      "otal": 6063,
      "æ³ķå¾ĭ": 6064,
      "é¡µ": 6065,
      "Ġreli": 6066,
      "sg": 6067,
      "Comm": 6068,
      "IO": 6069,
      "æ¡¥": 6070,
      "æµª": 6071,
      "System": 6072,
      "Ġcert": 6073,
      "ography": 6074,
      "æ£ĢæŁ¥": 6075,
      "çī¹å¾ģ": 6076,
      "åıĹåĪ°": 6077,
      "-M": 6078,
      "UP": 6079,
      "ç§ģ": 6080,
      "å¸Ń": 6081,
      "å®ŀæĸ½ä¾ĭ": 6082,
      "Ġindividuals": 6083,
      "................": 6084,
      "ĠChar": 6085,
      "cover": 6086,
      "æļĸ": 6087,
      "Ġutil": 6088,
      "ï¼Įåį³": 6089,
      "åĬŀæ³ķ": 6090,
      "ï¼Įçľĭ": 6091,
      "ica": 6092,
      "Ġgoes": 6093,
      "ç¼ĺ": 6094,
      "Ġofficial": 6095,
      "exp": 6096,
      "Ġä¸Ģ": 6097,
      "Ġattention": 6098,
      "Gener": 6099,
      "äº¤éĢļ": 6100,
      "æľīçļĦ": 6101,
      "Ġunit": 6102,
      "Ġnote": 6103,
      "äº¦": 6104,
      "ĠBro": 6105,
      "Ġuseful": 6106,
      "Ġè¿Ļ": 6107,
      "å¹ħ": 6108,
      "æ±ĩ": 6109,
      "content": 6110,
      "________": 6111,
      "arily": 6112,
      "format": 6113,
      "ĠDirect": 6114,
      "å»ºç«ĭ": 6115,
      "gorith": 6116,
      "Ġsy": 6117,
      "ĠBusiness": 6118,
      "èĩªåĬ¨": 6119,
      "çªĹ": 6120,
      "ns": 6121,
      "Ġge": 6122,
      "Ġnice": 6123,
      "Ġplaying": 6124,
      "asc": 6125,
      "ĠSub": 6126,
      "Ġexpression": 6127,
      "åİ»äºĨ": 6128,
      "/c": 6129,
      "Ġmyself": 6130,
      "Ġsex": 6131,
      "Ġnature": 6132,
      "å¿ĺ": 6133,
      "åĬªåĬĽ": 6134,
      "Ġleading": 6135,
      "Ġactive": 6136,
      "Ġstudent": 6137,
      "åŃĲçļĦ": 6138,
      "Ġprotected": 6139,
      "ĠRE": 6140,
      "æĶ¿çŃĸ": 6141,
      "rate": 6142,
      "Ġinsp": 6143,
      "actory": 6144,
      "ĠBlack": 6145,
      "Ġwoman": 6146,
      "ï¼ĮæĹł": 6147,
      "æĪĲäºĨ": 6148,
      "Ġformat": 6149,
      "Ġconstant": 6150,
      "ĠMarket": 6151,
      ".Get": 6152,
      "å¥³äºº": 6153,
      "ebug": 6154,
      "å£ģ": 6155,
      "Ġworked": 6156,
      "std": 6157,
      "Ġqual": 6158,
      "ãĢį": 6159,
      "true": 6160,
      "ODE": 6161,
      "æ±¡": 6162,
      "vest": 6163,
      "èĤ¡ä»½": 6164,
      "Ġreplace": 6165,
      "ĠFacebook": 6166,
      "SP": 6167,
      "Ġcharg": 6168,
      "æ¶ī": 6169,
      "æļ´": 6170,
      "Ġinteresting": 6171,
      "rupt": 6172,
      "ii": 6173,
      "())": 6174,
      "æĹ¶ä»£": 6175,
      "å¿½": 6176,
      "Ġyes": 6177,
      "ï¼ĮæľĢ": 6178,
      "haps": 6179,
      "}(": 6180,
      "Ġnational": 6181,
      "Ġsal": 6182,
      "ĠServices": 6183,
      "db": 6184,
      "æ´ĭ": 6185,
      "SC": 6186,
      "ellent": 6187,
      "Ġmode": 6188,
      "Ġpurpose": 6189,
      "é¬¼": 6190,
      "Ġfactor": 6191,
      "])": 6192,
      "èĤ¯å®ļ": 6193,
      "ĠReview": 6194,
      "/m": 6195,
      "level": 6196,
      "æķĮ": 6197,
      "Ġfre": 6198,
      "Ġdisease": 6199,
      "ĠManag": 6200,
      "å¡ŀ": 6201,
      "Ġsolutions": 6202,
      "Ġprojects": 6203,
      "åĪĽæĸ°": 6204,
      "èĢĲ": 6205,
      "ancy": 6206,
      "ĠSupp": 6207,
      "Ġnotice": 6208,
      "Ġsatisf": 6209,
      "ĠRem": 6210,
      "æĬ½": 6211,
      "ĠEnglish": 6212,
      "çľŁæŃ£": 6213,
      "Ġsituation": 6214,
      "Ġproperties": 6215,
      "Ġvariety": 6216,
      "éĢŁåº¦": 6217,
      "eline": 6218,
      "ris": 6219,
      "Start": 6220,
      "è¯¸": 6221,
      "å·¦åı³": 6222,
      "Status": 6223,
      "Ġmaterials": 6224,
      "oles": 6225,
      "æľªæĿ¥": 6226,
      "Ġplayer": 6227,
      "Ġcountries": 6228,
      "Ġclin": 6229,
      "hern": 6230,
      "Ġfloat": 6231,
      "Ġcontinu": 6232,
      "iance": 6233,
      "itute": 6234,
      "ä¼Ĭ": 6235,
      "ffect": 6236,
      "æĦıæĢĿ": 6237,
      "Script": 6238,
      "Ġaltern": 6239,
      "çĬ¯": 6240,
      "(new": 6241,
      "Ġaffect": 6242,
      "ç¯ĩ": 6243,
      "pected": 6244,
      "imately": 6245,
      "çĲĨè§£": 6246,
      "ĠFound": 6247,
      "Ġimages": 6248,
      "idget": 6249,
      "é¸¡": 6250,
      "ĠTechn": 6251,
      "eger": 6252,
      "Ġclients": 6253,
      "å°Ĭ": 6254,
      "Ġhair": 6255,
      "Ġaccur": 6256,
      "æĻ®éĢļ": 6257,
      "çĶµå½±": 6258,
      "ashing": 6259,
      "ramework": 6260,
      "æĹ¥æľ¬": 6261,
      "å±Ĭ": 6262,
      "Ġprinc": 6263,
      "rated": 6264,
      "ç±»åŀĭ": 6265,
      "Ġhelps": 6266,
      "omen": 6267,
      "True": 6268,
      "Ġconnection": 6269,
      "_v": 6270,
      "æ£®": 6271,
      "Date": 6272,
      "Ġimpl": 6273,
      "ĠMus": 6274,
      "Ġcolumn": 6275,
      "oom": 6276,
      "æľºåĻ¨": 6277,
      "Ġanim": 6278,
      "Ġball": 6279,
      "oub": 6280,
      "Ġheight": 6281,
      "levant": 6282,
      "ague": 6283,
      "iber": 6284,
      "çļĦäºĭæĥħ": 6285,
      "Ġpressure": 6286,
      "èĢĥèĻĳ": 6287,
      "Ġmag": 6288,
      "Ġadminist": 6289,
      "oding": 6290,
      "å®ĭ": 6291,
      "ades": 6292,
      "åıįåºĶ": 6293,
      "Line": 6294,
      "acters": 6295,
      "Ġcatch": 6296,
      "è¶ĬæĿ¥": 6297,
      "èº«ä¸Ĭ": 6298,
      "Ġstress": 6299,
      "TT": 6300,
      "Now": 6301,
      "Ġhands": 6302,
      "iding": 6303,
      "ĠHome": 6304,
      "ypes": 6305,
      "Ġmemory": 6306,
      "è¯ļ": 6307,
      "Us": 6308,
      "è®¢": 6309,
      ")*": 6310,
      "rial": 6311,
      "Ġencour": 6312,
      "Ġbus": 6313,
      "æĮĤ": 6314,
      "è°ĥæķ´": 6315,
      "Ġstatement": 6316,
      "Ġtowards": 6317,
      "Ġsomet": 6318,
      "Ġtown": 6319,
      "ç»ıéªĮ": 6320,
      "Fl": 6321,
      "Ġreve": 6322,
      "èĪĴ": 6323,
      "Ġlimited": 6324,
      "Ġwidth": 6325,
      "Ġsun": 6326,
      "åħĦ": 6327,
      "çĮ®": 6328,
      "æ¯Ķå¦Ĥ": 6329,
      "Ġabsolut": 6330,
      "Ġrev": 6331,
      "è¶ĬæĿ¥è¶Ĭ": 6332,
      "Acc": 6333,
      "æĮģç»Ń": 6334,
      "ç§¯æŀģ": 6335,
      "ooth": 6336,
      "event": 6337,
      "mathcal": 6338,
      "ĠPresident": 6339,
      "Exp": 6340,
      "æī©": 6341,
      "lib": 6342,
      "YPE": 6343,
      "ospital": 6344,
      "è¶ħè¿ĩ": 6345,
      "æŃ£å¸¸": 6346,
      "çĽ®çļĦ": 6347,
      "Ġappropri": 6348,
      "Ġcompletely": 6349,
      "Ġthinking": 6350,
      "section": 6351,
      "Act": 6352,
      "ãĢĤä½Ĩ": 6353,
      "è¯¦": 6354,
      "PO": 6355,
      ".r": 6356,
      "Ġchance": 6357,
      "éĶģ": 6358,
      "ffer": 6359,
      "ORT": 6360,
      "${": 6361,
      "åĮºåŁŁ": 6362,
      "éĥ½ä¸į": 6363,
      "Ġdemonstr": 6364,
      "Ġconsum": 6365,
      "Ġserious": 6366,
      "Posted": 6367,
      "aa": 6368,
      "itude": 6369,
      "Ġmis": 6370,
      "\\end": 6371,
      "ĠLog": 6372,
      "ç³ĸ": 6373,
      "After": 6374,
      "Ġsafety": 6375,
      "Ġwide": 6376,
      "Ġdoor": 6377,
      "Source": 6378,
      "otes": 6379,
      "Ġhighly": 6380,
      "Ġkit": 6381,
      ",ä¹Ł": 6382,
      "Ġdepend": 6383,
      "ĠUse": 6384,
      "arrow": 6385,
      "ÃĲ": 6386,
      "æķħäºĭ": 6387,
      "amily": 6388,
      "åħ³éĶ®": 6389,
      "gn": 6390,
      "åĶ¯": 6391,
      "ros": 6392,
      "Ġparents": 6393,
      "Ġgets": 6394,
      "CD": 6395,
      "ida": 6396,
      "rl": 6397,
      "ĠNe": 6398,
      "het": 6399,
      "ï¼Įå°ı": 6400,
      "æ°§": 6401,
      "å·§": 6402,
      "ĠST": 6403,
      "Ġmess": 6404,
      "Ġeyes": 6405,
      "å¾Ĳ": 6406,
      "æ´ģ": 6407,
      "package": 6408,
      "older": 6409,
      "æĳĨ": 6410,
      "top": 6411,
      "Ġformer": 6412,
      "Ġhear": 6413,
      "âĢĿãĢĤ": 6414,
      "Ġfair": 6415,
      "olar": 6416,
      "æİ¥åıĹ": 6417,
      "but": 6418,
      "})": 6419,
      "ĠAfric": 6420,
      "ĠAssoci": 6421,
      "èĥ¶": 6422,
      "des": 6423,
      "æ°ı": 6424,
      "Ġoccur": 6425,
      "ĠLa": 6426,
      "Ġstarting": 6427,
      "å¼ĥ": 6428,
      "å¢ŀéķ¿": 6429,
      "Ġorganization": 6430,
      "agram": 6431,
      "Ġdeveloped": 6432,
      "aled": 6433,
      "éĹª": 6434,
      "ibly": 6435,
      "ĠBook": 6436,
      "ĠHar": 6437,
      "ishing": 6438,
      "Group": 6439,
      "ĠProgram": 6440,
      "Per": 6441,
      "rapy": 6442,
      "Ġrat": 6443,
      "è®¯": 6444,
      "rought": 6445,
      "Ġlack": 6446,
      "Ġentry": 6447,
      "ĠGroup": 6448,
      "è¾ĳ": 6449,
      "Ġdaily": 6450,
      "æŁĶ": 6451,
      "Ġmorning": 6452,
      "ï¼ĮæĽ´": 6453,
      "Ġrandom": 6454,
      "Ġdark": 6455,
      "Ġliter": 6456,
      "open": 6457,
      "Ġmodern": 6458,
      "Ġinternational": 6459,
      "gest": 6460,
      "Ġcorrespond": 6461,
      "attle": 6462,
      "Ġdefend": 6463,
      "osis": 6464,
      "About": 6465,
      "Ġrespond": 6466,
      "Ġproviding": 6467,
      "Ġexerc": 6468,
      "éĩĮéĿ¢": 6469,
      "èģĶç³»": 6470,
      "sych": 6471,
      "é©¾": 6472,
      "è¯Ĭ": 6473,
      "Ġhandle": 6474,
      "å¦ĩ": 6475,
      "Ġsleep": 6476,
      "éĥ½æľī": 6477,
      "æĺİæĺ¾": 6478,
      "åĩĮ": 6479,
      "_set": 6480,
      "ialog": 6481,
      "æ¶¨": 6482,
      "å¯¹æĸ¹": 6483,
      "é¢Ĩå¯¼": 6484,
      "ĠUK": 6485,
      "Ġvers": 6486,
      "Ġforce": 6487,
      "Ġcareer": 6488,
      "riter": 6489,
      "Ġbasis": 6490,
      "ï¼Įä¸įè¿ĩ": 6491,
      "_pro": 6492,
      "ĠWar": 6493,
      "force": 6494,
      "){": 6495,
      "Ġlen": 6496,
      "local": 6497,
      "Ġlocated": 6498,
      "Ġgreater": 6499,
      "Ġgreen": 6500,
      "pre": 6501,
      "ĠTV": 6502,
      "Ġseek": 6503,
      "bon": 6504,
      "å¤®": 6505,
      "çĶŁåĳ½": 6506,
      "ä»¥ä¸º": 6507,
      "æ¶Īæģ¯": 6508,
      "initely": 6509,
      "FA": 6510,
      "æ¸ħæ¥ļ": 6511,
      "éĢĶ": 6512,
      "åİĭåĬĽ": 6513,
      "Ġbecame": 6514,
      "/b": 6515,
      "rown": 6516,
      "å±ı": 6517,
      "itation": 6518,
      "ĠOver": 6519,
      "Ġtransfer": 6520,
      "Ġbud": 6521,
      "flow": 6522,
      "riday": 6523,
      "la": 6524,
      "Input": 6525,
      "åºĦ": 6526,
      "Ġresource": 6527,
      "Ġassist": 6528,
      "ĠAustral": 6529,
      "}^": 6530,
      "sum": 6531,
      "å¸¦çĿĢ": 6532,
      "ĠDet": 6533,
      "Ġcele": 6534,
      "åıĳè¡Į": 6535,
      "å®¶åºŃ": 6536,
      "Ġpurchase": 6537,
      "ĠMat": 6538,
      "èª": 6539,
      "æİª": 6540,
      "Ġdetermine": 6541,
      "table": 6542,
      "Ġcontains": 6543,
      "ithub": 6544,
      "context": 6545,
      "net": 6546,
      "arser": 6547,
      "Ġlabel": 6548,
      "Ġhttps": 6549,
      "ç¥ĸ": 6550,
      "hest": 6551,
      "ç´«": 6552,
      "AV": 6553,
      "ĠRuss": 6554,
      "Ġprogress": 6555,
      "Ġtouch": 6556,
      "Ġlif": 6557,
      "ç¨³å®ļ": 6558,
      "Ġmulti": 6559,
      "Ġcapt": 6560,
      "Ġfelt": 6561,
      "ously": 6562,
      "è´Ŀ": 6563,
      "DF": 6564,
      "Ġinfo": 6565,
      "Ġinternal": 6566,
      "æľŁéĹ´": 6567,
      "éģį": 6568,
      "Ġdescribed": 6569,
      "Ġspeak": 6570,
      "Ġrequirements": 6571,
      "She": 6572,
      "Rel": 6573,
      "obj": 6574,
      "Ġprem": 6575,
      "ITY": 6576,
      "Ġacqu": 6577,
      "Ġachieve": 6578,
      "iant": 6579,
      "æ§½": 6580,
      "stract": 6581,
      "ara": 6582,
      "Ġpolitical": 6583,
      "CP": 6584,
      "Ġbroad": 6585,
      "æĶ¹åıĺ": 6586,
      "ESS": 6587,
      "Ġten": 6588,
      "ĠIndia": 6589,
      "Ġdecided": 6590,
      "çļĦå¿ĥ": 6591,
      "å¥½äºĨ": 6592,
      "Ġdistribution": 6593,
      "Ġreach": 6594,
      "iforn": 6595,
      "è¿Ŀ": 6596,
      "OUT": 6597,
      "ĠWork": 6598,
      "Ġmeeting": 6599,
      "wood": 6600,
      "Ġagree": 6601,
      ">(": 6602,
      "ä¾ĭå¦Ĥ": 6603,
      "Ġexactly": 6604,
      "Ġremove": 6605,
      "endif": 6606,
      "Ġincreasing": 6607,
      "?\"": 6608,
      "Ġteac": 6609,
      "æ¢ģ": 6610,
      "Ġearn": 6611,
      "ĠHel": 6612,
      "Ġpatient": 6613,
      "ĠBest": 6614,
      "ç½ĳç«Ļ": 6615,
      "ĠCheck": 6616,
      "ĠHer": 6617,
      "_DE": 6618,
      "å·¥ä¸ļ": 6619,
      "Ġtour": 6620,
      "pite": 6621,
      "Ġmobile": 6622,
      "Ġapplications": 6623,
      "uid": 6624,
      "èĲ§": 6625,
      "band": 6626,
      "Ġinform": 6627,
      "ĠBrit": 6628,
      "term": 6629,
      "Head": 6630,
      "åĩıå°ĳ": 6631,
      "Ġplans": 6632,
      "icks": 6633,
      "Ġamazing": 6634,
      "ĠAir": 6635,
      "Ġbegan": 6636,
      "idden": 6637,
      "ronic": 6638,
      "åı¦å¤ĸ": 6639,
      "ĠMich": 6640,
      "åıĤä¸İ": 6641,
      "ĠPlease": 6642,
      "FT": 6643,
      "åĨ¬": 6644,
      "SD": 6645,
      "ensity": 6646,
      "æĺİçĻ½": 6647,
      "Ġsurpr": 6648,
      "clusion": 6649,
      ":(": 6650,
      "apan": 6651,
      "ä½ľèĢħ": 6652,
      "çľĭçľĭ": 6653,
      "Ġstru": 6654,
      "Ġgave": 6655,
      "åĩĿ": 6656,
      "Ġsample": 6657,
      "Ġreduce": 6658,
      "ĠWeb": 6659,
      "çļĦéĹ®é¢ĺ": 6660,
      "Ġadvant": 6661,
      "known": 6662,
      "ls": 6663,
      "äºİæĺ¯": 6664,
      "Ġwasn": 6665,
      "Ġarr": 6666,
      "Ġgas": 6667,
      "èĴĻ": 6668,
      "unities": 6669,
      "asks": 6670,
      "æĴĳ": 6671,
      "Ġfields": 6672,
      "_E": 6673,
      "åıĳå¸ĥ": 6674,
      "ç£¨": 6675,
      "AME": 6676,
      "ä¸Ģä¸ªäºº": 6677,
      "/p": 6678,
      "ĠTime": 6679,
      "Ġroll": 6680,
      "abs": 6681,
      "ĠGerm": 6682,
      "Ġsetting": 6683,
      "Ġassum": 6684,
      "icrosoft": 6685,
      "request": 6686,
      "Ġpull": 6687,
      "çľī": 6688,
      "lections": 6689,
      "Ġactual": 6690,
      "Client": 6691,
      "ĠSw": 6692,
      "ä¸ģ": 6693,
      "Equal": 6694,
      "çļĦæĹ¶éĹ´": 6695,
      "edia": 6696,
      "anged": 6697,
      "ech": 6698,
      "QL": 6699,
      "Ġsem": 6700,
      "éŀ": 6701,
      ".ex": 6702,
      "ĠInternational": 6703,
      "éĥ½ä¼ļ": 6704,
      "åĿĢ": 6705,
      "atively": 6706,
      "Ġmid": 6707,
      "æĦıè¯Ĩ": 6708,
      "Ġmeaning": 6709,
      "èĨľ": 6710,
      "åıªèĥ½": 6711,
      "output": 6712,
      "éĩįçĤ¹": 6713,
      "Ġdegree": 6714,
      "ĠĠĠĠĠĠĠĠĠĠĠĠĠĠĠĠĠ": 6715,
      "\\\"": 6716,
      "urt": 6717,
      "æŃ¤æĹ¶": 6718,
      "Block": 6719,
      "ams": 6720,
      "ios": 6721,
      "inner": 6722,
      "Ġenh": 6723,
      "Ġnav": 6724,
      "Ġestim": 6725,
      "Ġfa": 6726,
      "pecial": 6727,
      "Ġcreating": 6728,
      "å¢¨": 6729,
      "ĠSan": 6730,
      "-S": 6731,
      "ä»ĸä»¬çļĦ": 6732,
      "æĪª": 6733,
      "ĠType": 6734,
      "ĠAng": 6735,
      "Ġsometimes": 6736,
      "Ġsuccessful": 6737,
      "Ġhy": 6738,
      "Off": 6739,
      "cher": 6740,
      "ifornia": 6741,
      "client": 6742,
      "æĹĭ": 6743,
      "Ġparameters": 6744,
      "Ġroot": 6745,
      "xx": 6746,
      "ä¸¹": 6747,
      "Ġir": 6748,
      "Ġfully": 6749,
      "ç³»åĪĹ": 6750,
      "Ġknew": 6751,
      "Ġidentify": 6752,
      "ĠIns": 6753,
      "Check": 6754,
      "å½ĵæĹ¶": 6755,
      "Ġfight": 6756,
      "Ġallowed": 6757,
      "Button": 6758,
      "Number": 6759,
      "Ġneigh": 6760,
      "ï¼Įçİ°åľ¨": 6761,
      "ĠAut": 6762,
      "ĠChina": 6763,
      "ĠRef": 6764,
      "Ġtherefore": 6765,
      "ATION": 6766,
      "æĺ¯ä¸į": 6767,
      "ename": 6768,
      "Ġcharge": 6769,
      "BA": 6770,
      "æĩĤ": 6771,
      "arant": 6772,
      "UI": 6773,
      "çıł": 6774,
      "æĸ°åŀĭ": 6775,
      "ERS": 6776,
      "\\begin": 6777,
      "ondon": 6778,
      "æĭŁ": 6779,
      "Ġrates": 6780,
      "Ġstage": 6781,
      "Do": 6782,
      "Ġprimary": 6783,
      "ĠAlso": 6784,
      "çİ°ä»£": 6785,
      "opping": 6786,
      "Ġgiving": 6787,
      "Ġmagn": 6788,
      "åĿļæĮģ": 6789,
      "dev": 6790,
      "Ġexpert": 6791,
      "Ġwood": 6792,
      "////////////////": 6793,
      "ulated": 6794,
      "äº¡": 6795,
      "çİ°åľº": 6796,
      "cil": 6797,
      "enty": 6798,
      "Ġstorage": 6799,
      "çĶ·äºº": 6800,
      "Box": 6801,
      "Ġfavorite": 6802,
      "ï¼Įå°±æĺ¯": 6803,
      "Ġsaying": 6804,
      "Ġaware": 6805,
      "Ġemerg": 6806,
      "ael": 6807,
      "æ¢ħ": 6808,
      "Ġrules": 6809,
      "Ġ()": 6810,
      "]{": 6811,
      "Ġmut": 6812,
      "çĸ«æĥħ": 6813,
      "ä¼¦": 6814,
      "mathbb": 6815,
      "Ġfresh": 6816,
      "ivery": 6817,
      "ERR": 6818,
      "ĠSte": 6819,
      "ALL": 6820,
      "ï¼ĮéĤ£ä¹Ī": 6821,
      "æ¼«": 6822,
      "è·Ŀç¦»": 6823,
      "encies": 6824,
      "äºĮåįģ": 6825,
      "Ġded": 6826,
      "Ġreference": 6827,
      "ĠOther": 6828,
      "æ¹¿": 6829,
      "Ġtried": 6830,
      "KE": 6831,
      "åºŁ": 6832,
      "Ġcancer": 6833,
      "é©±": 6834,
      "ÃĹ": 6835,
      "è¹": 6836,
      "Ġtal": 6837,
      "äºĨä¸Ģä¸ª": 6838,
      "Ġcampaign": 6839,
      "åĪ«äºº": 6840,
      "Ġsummer": 6841,
      "Ġpopulation": 6842,
      "èļ": 6843,
      "Search": 6844,
      "izations": 6845,
      "åĨħéĥ¨": 6846,
      "éĩıçļĦ": 6847,
      "irus": 6848,
      "Ġpet": 6849,
      "Ġsteps": 6850,
      "çĦ¶èĢĮ": 6851,
      "Ġauto": 6852,
      "ĠCoun": 6853,
      "eps": 6854,
      "Ġstrategy": 6855,
      "ï¼Įåħ¶ä¸Ń": 6856,
      "ç§»åĬ¨": 6857,
      "ĠDepartment": 6858,
      "olor": 6859,
      "Ġstuff": 6860,
      "Ġchanged": 6861,
      "Ġheard": 6862,
      "ĠCopyright": 6863,
      "Ġsale": 6864,
      "lor": 6865,
      "ĠKing": 6866,
      "æĢĴ": 6867,
      "Ġnumer": 6868,
      "uster": 6869,
      "å®ŀçĶ¨": 6870,
      "otion": 6871,
      "Ġdead": 6872,
      "çģŃ": 6873,
      "é²ģ": 6874,
      "_to": 6875,
      "åĬ±": 6876,
      "çĭĤ": 6877,
      "Ġfix": 6878,
      "Ġspect": 6879,
      "Ġä»ĸ": 6880,
      "End": 6881,
      "Ġequipment": 6882,
      "Ġanaly": 6883,
      "Ġled": 6884,
      "åıĳæĺİ": 6885,
      "æĻĵ": 6886,
      "sets": 6887,
      "Ġconstruct": 6888,
      "æıĴ": 6889,
      "Ġwish": 6890,
      "IZ": 6891,
      "igma": 6892,
      "apping": 6893,
      "Ġple": 6894,
      "è½¯ä»¶": 6895,
      "Ġpark": 6896,
      "amma": 6897,
      "Ġopin": 6898,
      ",è¿Ļ": 6899,
      "aught": 6900,
      "inated": 6901,
      "æ¨ª": 6902,
      "Ġmount": 6903,
      "ĠDevelop": 6904,
      "Â°": 6905,
      "âĪ": 6906,
      ".util": 6907,
      "ĠPre": 6908,
      "ä¸įä»ħ": 6909,
      "ï¼ĮåĲĮæĹ¶": 6910,
      "ĠAND": 6911,
      "PT": 6912,
      "Ġdistributed": 6913,
      "ï¼Įä¾¿": 6914,
      "Ġpartners": 6915,
      "åıĬæĹ¶": 6916,
      "ÃŃ": 6917,
      "çĩĥ": 6918,
      "Ġtree": 6919,
      "Ġlock": 6920,
      "Ġemployees": 6921,
      "sqrt": 6922,
      "éĿ¢å¯¹": 6923,
      "âĢĿ,": 6924,
      "çļĦåľ°æĸ¹": 6925,
      "Ġrequires": 6926,
      "iler": 6927,
      "æĹħæ¸¸": 6928,
      "éĢĴ": 6929,
      "ĠOpen": 6930,
      "åıĸå¾Ĺ": 6931,
      "æŀª": 6932,
      "Ġscale": 6933,
      "çŃĶæ¡Ī": 6934,
      "Ġpredict": 6935,
      "æ³°": 6936,
      "Ġpiece": 6937,
      "æĺ¯ä¸Ģç§į": 6938,
      "ä½įäºİ": 6939,
      "ga": 6940,
      "Ġplaces": 6941,
      "rote": 6942,
      "Your": 6943,
      "åĩºåİ»": 6944,
      "å½»": 6945,
      "ĠMod": 6946,
      "ĠDist": 6947,
      "roy": 6948,
      "ado": 6949,
      "å°ĺ": 6950,
      "Ġculture": 6951,
      "Here": 6952,
      "Ġdecre": 6953,
      "Ġaim": 6954,
      "æĿ°": 6955,
      "ran": 6956,
      "#if": 6957,
      "çĤ¼": 6958,
      ".)": 6959,
      "river": 6960,
      "æĽ¿": 6961,
      "éĿ¢ç§¯": 6962,
      "Ġaspect": 6963,
      "Ġhimself": 6964,
      "Ġcarry": 6965,
      "Part": 6966,
      "ä¸įå°ĳ": 6967,
      "_list": 6968,
      "Ġ[]": 6969,
      "èµĦæĸĻ": 6970,
      "æĥ¯": 6971,
      "Ġinvestig": 6972,
      "Ġoperation": 6973,
      "raz": 6974,
      "Ġconv": 6975,
      "ownload": 6976,
      "ĠAtt": 6977,
      "argin": 6978,
      "pc": 6979,
      "å¿«éĢŁ": 6980,
      "ABLE": 6981,
      "çĶµè§Ĩ": 6982,
      "Ġchem": 6983,
      "Ġhour": 6984,
      "é¼ĵ": 6985,
      "Ġselected": 6986,
      "çĥ¦": 6987,
      "Ġdoc": 6988,
      "ensions": 6989,
      "Ġtemperature": 6990,
      ".N": 6991,
      "ä¼¯": 6992,
      "Ġaf": 6993,
      "Ġfine": 6994,
      "Ġinterface": 6995,
      "Ġregist": 6996,
      "Î¿": 6997,
      "åĩłä¹İ": 6998,
      "ĠPolicy": 6999,
      "gl": 7000,
      "ï¼ĮæĬĬ": 7001,
      "sm": 7002,
      "åĩºçīĪ": 7003,
      "ĠEvery": 7004,
      ".length": 7005,
      "msg": 7006,
      "_re": 7007,
      "éģ¿åħį": 7008,
      "ä¸īä¸ª": 7009,
      "èĤ¥": 7010,
      "ï¼ĮçĶ¨": 7011,
      "dule": 7012,
      "-B": 7013,
      "ford": 7014,
      ",å¹¶": 7015,
      "åĪ·": 7016,
      "Ġgold": 7017,
      "é¦ĸåħĪ": 7018,
      "Ġinterview": 7019,
      "query": 7020,
      "ä¹ĭä¸Ń": 7021,
      "ç»Īäºİ": 7022,
      "Ġrefer": 7023,
      "èĻİ": 7024,
      "Ġson": 7025,
      "è¢ĭ": 7026,
      "Ð°Ð": 7027,
      "Ġrelevant": 7028,
      "gar": 7029,
      "æľīçĤ¹": 7030,
      "Ġrepl": 7031,
      "å½¢å¼ı": 7032,
      "Ġband": 7033,
      "ä¸įåĲĮçļĦ": 7034,
      "Ġrock": 7035,
      "ä¸įéĶĻ": 7036,
      "rim": 7037,
      "sole": 7038,
      "ĠGo": 7039,
      "Ġmoving": 7040,
      "Ġexisting": 7041,
      "Ġrepe": 7042,
      "ä¸įå¥½": 7043,
      "ãĢĭï¼Į": 7044,
      "Ġhuge": 7045,
      "è±Ĩ": 7046,
      "rive": 7047,
      "Ġadjust": 7048,
      "Ġbottom": 7049,
      "Ġbehavior": 7050,
      "elcome": 7051,
      "ï¼Įæ²¡æľī": 7052,
      "Ġjo": 7053,
      "æī¾åĪ°": 7054,
      "è¯´çļĦ": 7055,
      "arden": 7056,
      "ensor": 7057,
      "icip": 7058,
      "ĠKe": 7059,
      "ias": 7060,
      "ä¸°å¯Į": 7061,
      "ILE": 7062,
      "åĮ»çĸĹ": 7063,
      "Ġthus": 7064,
      "mazon": 7065,
      "å§Ķåĳĺ": 7066,
      "å¹´è½»": 7067,
      "Ġcertainly": 7068,
      "æĺ¯ä»Ģä¹Ī": 7069,
      "Ġswitch": 7070,
      "Ġoverall": 7071,
      "host": 7072,
      "è®°èĢħ": 7073,
      "æĽ°": 7074,
      "Ġtransform": 7075,
      "Ġdirection": 7076,
      "orge": 7077,
      "æĬµ": 7078,
      "å®¶çļĦ": 7079,
      "Method": 7080,
      "æ¬²": 7081,
      "typ": 7082,
      "çĭĹ": 7083,
      "Ġparticularly": 7084,
      "Ġheat": 7085,
      "ä¸¤äºº": 7086,
      "è¿¹": 7087,
      "oday": 7088,
      "Ġsold": 7089,
      "fficient": 7090,
      "ĠDec": 7091,
      "åĪ¶éĢł": 7092,
      "ä¸ĬäºĨ": 7093,
      "Pre": 7094,
      "Ġeconomic": 7095,
      "Override": 7096,
      "åı¦ä¸Ģ": 7097,
      "ĠReturn": 7098,
      "ressed": 7099,
      "ĠSince": 7100,
      "åľ¨äºİ": 7101,
      "iately": 7102,
      "Ġargument": 7103,
      "ĠMost": 7104,
      "éĺ¶æ®µ": 7105,
      "(r": 7106,
      "Ġfinally": 7107,
      "Ġnovel": 7108,
      "ynamic": 7109,
      "ä¿¡åı·": 7110,
      "ilies": 7111,
      "itect": 7112,
      "Ġoptim": 7113,
      "Ġcharacters": 7114,
      "Ġter": 7115,
      "cp": 7116,
      "Ġcompar": 7117,
      "Ġdistance": 7118,
      "èº«è¾¹": 7119,
      "-time": 7120,
      "Ġpaid": 7121,
      "Ext": 7122,
      "åħ±åĲĮ": 7123,
      "xt": 7124,
      "Ġ~": 7125,
      "Ġhealthy": 7126,
      "Ġsession": 7127,
      "ĠManagement": 7128,
      "rip": 7129,
      "æµĵ": 7130,
      "è¿Ķ": 7131,
      "åŁ¹è®Ń": 7132,
      "åĭĩ": 7133,
      "éĢĥ": 7134,
      "Ġexcellent": 7135,
      "oly": 7136,
      "æ»¡è¶³": 7137,
      "Ġadult": 7138,
      "ï¼Įå¹¶ä¸Ķ": 7139,
      "CA": 7140,
      "Inst": 7141,
      "Ġfather": 7142,
      "åĶ±": 7143,
      "ä»Ĭå¹´": 7144,
      "Ġimag": 7145,
      "ayers": 7146,
      "amespace": 7147,
      "èĦī": 7148,
      "æķĻå¸Ī": 7149,
      "ald": 7150,
      "åĲ¬åĪ°": 7151,
      "ategories": 7152,
      "Ġpages": 7153,
      "Ġdemand": 7154,
      "çļĦé«ĺ": 7155,
      "Ġinterested": 7156,
      "Ġlooked": 7157,
      "Ġalone": 7158,
      "ï¼Įä¸İ": 7159,
      "Contact": 7160,
      "è°·": 7161,
      "Ġregarding": 7162,
      "æķı": 7163,
      "AX": 7164,
      "çº¹": 7165,
      "ĠFe": 7166,
      "åĪ¶åº¦": 7167,
      "åĪ¶ä½ľ": 7168,
      "è®¤è¯Ĩ": 7169,
      "æ´ŀ": 7170,
      "ĠObject": 7171,
      "#endif": 7172,
      "å¦Īå¦Ī": 7173,
      "ĠAny": 7174,
      "-type": 7175,
      "Ġappropriate": 7176,
      "åĲĪåĲĮ": 7177,
      "tee": 7178,
      "å°¾": 7179,
      "Content": 7180,
      "CS": 7181,
      "Ġblue": 7182,
      "åĬłåħ¥": 7183,
      "(l": 7184,
      "([": 7185,
      "ä¸»ä¹ī": 7186,
      "(const": 7187,
      "å§ĵ": 7188,
      "ĠRel": 7189,
      "Ġapprox": 7190,
      "Ã³": 7191,
      "Ġinternet": 7192,
      "Ġpref": 7193,
      "èģĮä¸ļ": 7194,
      "edding": 7195,
      "Base": 7196,
      "options": 7197,
      "Ġplanning": 7198,
      "sl": 7199,
      "ä¸Ĭè¿°": 7200,
      "Ġinnov": 7201,
      "Ġframe": 7202,
      "ributes": 7203,
      "Ġturned": 7204,
      "idents": 7205,
      "ĠTwitter": 7206,
      "èĤ¡ä¸ľ": 7207,
      "åªĴä½ĵ": 7208,
      "Ġshowed": 7209,
      "éķ¿æľŁ": 7210,
      "æ¡£": 7211,
      "åĲĮåŃ¦": 7212,
      "ruit": 7213,
      "och": 7214,
      "åı¬": 7215,
      "Ġreasons": 7216,
      "Ġotherwise": 7217,
      "inst": 7218,
      "Ġfirm": 7219,
      "DR": 7220,
      "ĠResearch": 7221,
      "æ®ĭ": 7222,
      "count": 7223,
      "uit": 7224,
      "ancing": 7225,
      "Ġwhose": 7226,
      "è´¹çĶ¨": 7227,
      "Ġmovie": 7228,
      "æ¸©åº¦": 7229,
      "Ġfilter": 7230,
[...]
